/**
  ******************************************************************************
  * @file    network_data_params.c
  * @author  AST Embedded Analytics Research Platform
  * @date    Sat Aug 23 23:48:28 2025
  * @brief   AI Tool Automatic Code Generator for Embedded NN computing
  ******************************************************************************
  * Copyright (c) 2025 STMicroelectronics.
  * All rights reserved.
  *
  * This software is licensed under terms that can be found in the LICENSE file
  * in the root directory of this software component.
  * If no LICENSE file comes with this software, it is provided AS-IS.
  ******************************************************************************
  */

#include "network_data_params.h"


/**  Activations Section  ****************************************************/
ai_handle g_network_activations_table[1 + 2] = {
  AI_HANDLE_PTR(AI_MAGIC_MARKER),
  AI_HANDLE_PTR(NULL),
  AI_HANDLE_PTR(AI_MAGIC_MARKER),
};




/**  Weights Section  ********************************************************/
AI_ALIGNED(32)
const ai_u64 s_network_weights_array_u64[55305] = {
  0x48efe51ff8b951f3U, 0xf7c22f01817002c5U, 0xf40dfad632f29769U, 0xd92df4U,
  0x0U, 0x0U, 0x412b000000000000U, 0x17174c29237f4117U,
  0x123e251d68350f2aU, 0x171c0e282006040bU, 0x20fcf6f1eca9cd0cU, 0xb3a1ee7adc80f46U,
  0x683c0119081d7f4dU, 0x13052b2c131b1c1cU, 0x16d7f0016170d2bU, 0x4c50fe444f085c50U,
  0x9f091b2d1337371aU, 0x3e23955139813a27U, 0x15d2351da82910c7U, 0xf4220fca29fcda1cU,
  0xf51610dffee50213U, 0x644d072a09f45e10U, 0x1ddad0c52e7f3e33U, 0x1b45241814U,
  0x0U, 0x0U, 0x0U, 0xd8e9eab4d5f5d6e7U,
  0x22217f3e154e29f3U, 0xf5caeef9ddf51344U, 0xf7f7152bcffbe7f9U, 0xb0209fddc9e8108U,
  0xfbfe0804f8eefaf5U, 0xe6f40e39cefa07ffU, 0xda063f29f4d2edf7U, 0x8523cdc81c1e7bfU,
  0x1f17e6a5ccf1dbe3U, 0xf913532ef9d2e408U, 0x217f43f2aac60703U, 0x3d21f9d6e20bf8eaU,
  0xee6e7f2907fff711U, 0x396f35429fd33403U, 0x14ee19c4e70a0cfcU, 0x1a22c41311ebf625U,
  0xc22060c451f0b2aU, 0x372812513e08201aU, 0xd7db81b8e098c109U, 0xd281b81c4a28f4c7U,
  0xe04f6f2fa123222U, 0x43eec3ddff03000bU, 0x11ae3fefcadf2371U, 0x817b14b6380edf14U,
  0x3a08926500bd4000U, 0xfbd3303dd1e0bb9U, 0xc000000000019a7aU, 0x16eb00002d4d8U,
  0x21cfe000371ccU, 0xc00000000001aa50U, 0xffff94c20000eb6aU, 0xb4ab0000dd65U,
  0x89af000242ffU, 0x210a1ffffffa7U, 0xd87f7fa77f88de49U, 0x503b42ec6ed61800U,
  0xee4963055e81dcfaU, 0xf95346e7816120ffU, 0xa6f4c15512083dbeU, 0xb91ff3f211d31307U,
  0x18824e814717a37fU, 0x7f5c81816b9f4d8bU, 0xab72d0bcf2081f2U, 0xf37faf9f8f7f7f8eU,
  0x8103d675d2fa0c8eU, 0x8c3007f504d53c02U, 0x5d8a16fbe964d1feU, 0xf827340308f2427fU,
  0x66f11c02c7658bfbU, 0xfc3526fcf31d5a66U, 0xd422f001ecfaf607U, 0xc14fcf604f51bf7U,
  0x3300000406U, 0x3ed00000279U, 0xffffffe50000053aU, 0x2b00000217U,
  0xfffffdb40000085cU, 0xb86000006adU, 0x6f300000521U, 0x4d0000000bcU,
  0x810d07a60800f9U, 0x4e889b372d1f7dcU, 0x7fd4e118100e6U, 0xd4fcdff1f708f76dU,
  0x3fef4fb7f00d3U, 0xcbfcfcf909f8052eU, 0xec159724f0004bU, 0x47e51b13fffe1581U,
  0xcb000e02f400e7U, 0xfdf87f2509f8fc05U, 0x16f7fb248100b4U, 0xbb0a030309f50c90U,
  0x2afbff81e200feU, 0xf6870332040a1d02U, 0x10000a07fd000cU, 0x9ff05122f81f304U,
  0xf4fee4f1fd00f7U, 0xf802feec81c406feU, 0xfffcbe03020081U, 0x330101eb0afb2a02U,
  0x1a0887e6eb00c2U, 0xae07fd04f71581ffU, 0x27f0afa0100f7U, 0xf90001f6fd001001U,
  0x8fc59f24300e9U, 0xdaff1bf2f507ec81U, 0x3104eacde00029U, 0xff0d7f8a27fe0803U,
  0xfcfe046b1500ffU, 0xff810cd4fe03e300U, 0x140450f1ff00d6U, 0x7f03fdfcf903dbfeU,
  0xfffff844000012f6U, 0xcce00000015U, 0x3fbdffffee90U, 0x31600001a8fU,
  0x1d42000037eeU, 0xfffff02d000042caU, 0xffffecf500000589U, 0xffffda43ffffedefU,
  0x7fe21405f513fd1cU, 0xf2e906ff02ee1011U, 0x1090503f50502fdU, 0xfafc0581fd0200U,
  0xfc0a63f157c7ad15U, 0xff03f77ffd010103U, 0x32375fd7dbac7181U, 0x50ee230410e7d8d7U,
  0x7f2919f0f0011031U, 0x1ae2fb07010df306U, 0x44f70dfcfe0401f0U, 0xfcf9f60f0201ff7fU,
  0x18804fcf10601ecU, 0x810a03fe04fff9U, 0xaf0ff3fc14f0f408U, 0x90c0ae9fe03fb81U,
  0x3a81f536ea2f17e4U, 0xc65a447addde2ebU, 0xc40cfa12a8fb6be3U, 0x7803eb7e1181b714U,
  0x7f4cf8d5fe19d15fU, 0x3acfc0deb2a0e0cU, 0x81cdd0021627ce0bU, 0xbb1f1ef3f7dd360dU,
  0xc7fecf1ed1beaf5U, 0x49412121bee0208U, 0x7fec07fe63af7b9U, 0xfd0059ed03fb03fcU,
  0xfc8121ee1cf010e4U, 0xef7be101f80a06f6U, 0x700aed1ef7fadefU, 0x70be73005f5fef7U,
  0x9e3a81f20a648c3aU, 0xd1aa33fd42012f0cU, 0xfaef620c9b504719U, 0x260609471b237f10U,
  0xe73817b13b3616U, 0xe015f940047fe206U, 0xfc8d42da2ce21dacU, 0xca7ffad9daf929e7U,
  0xa5a609ebda07109bU, 0x3993f52d0af5d47fU, 0x5af02d161d0bf32eU, 0x810a0ab5ee0e6929U,
  0x20a0706f40504faU, 0x1f9f6078107fffeU, 0xf31b8627f07f8c5bU, 0xf7ecfa34f7f20004U,
  0xf8bab2ba2dc2e620U, 0xf91a7fe1faf0a10dU, 0x71572fc19815cf2U, 0xfc0a14c9010b02feU,
  0xbc17f6e975f195e5U, 0xb0e8fc8111684afdU, 0xf15f4f01914fdU, 0x81fd0f1404f8acffU,
  0x1f8d3eb25daebf7U, 0xaefe18f002d381f8U, 0xfd117b3181684907U, 0x1d04c6561b377e04U,
  0x512c87fe71e1bccU, 0xfe1452d602010102U, 0x303c57fde2e07b9U, 0x55ee4030000fdU,
  0x1a5cf42e31e9d0aeU, 0xfb9e81d78ed4eedcU, 0x113a1e27f9e99d4U, 0x11e4fa85efd8d4f4U,
  0x3812899100b0eacU, 0xe74fc5f9f3ee15e7U, 0x73d05e21f01e8daU, 0xdcc707ea638129fdU,
  0xb8fafbfd04f6fb0aU, 0x3f60ff9fe020181U, 0x5f795d363a1bbfcU, 0xe00234b4edda81fbU,
  0xd90527f3320fd9f0U, 0x960b0da6f97f460bU, 0x170efc12b601550fU, 0x670bf56e0c81b3f1U,
  0x1ede281c6155324U, 0xf5b7a9030500faU, 0x1e137fbffa9372a5U, 0x3a174af20816e1efU,
  0x5e1b8f83eb8ca0aU, 0x7f0b07caec2518fcU, 0xee7febf7eaf3fe3aU, 0xa9f5bf4141b0a0dU,
  0x7f060f07fe130014U, 0xee1002ff05f51044U, 0x4ef51f191b27e555U, 0x812808a1ea3e6b1fU,
  0x5ee0416e6e7faU, 0x7f06ede4ffe770faU, 0xd4f6b3f540398130U, 0x8aea12b3036e581eU,
  0x3eb100be6131606U, 0xb2f1f621ff5481f9U, 0x9da9863c83bff60U, 0x7ae5907c518381ffU,
  0x926de0128dbdeddU, 0x7e2e5d381c0fdf3U, 0x111bcef0f845be7fU, 0xd7bf2805f0042319U,
  0xfe81f2182628f3fcU, 0xe663d500fbdf06f8U, 0x40310609060cfe3dU, 0xf43e19f5ffeb1081U,
  0xfc7fe701e301fe3dU, 0x14973506f80dfb10U, 0x6eb8c076d89b7faU, 0x7f02eda803af1deeU,
  0x30fa9f1f77fb2f5U, 0x60ef93402f8fffbU, 0xf9fcf5ea6afdaaf2U, 0x9dfd108ef07f510cU,
  0xfd07b087b72a6f2fU, 0xfc0ea481ffff03ffU, 0x2f78ce8638faffaU, 0x7f060eaaf0c412fcU,
  0x97ff6cedbfffc07U, 0x2c8c3d150418f307U, 0xf70d7f119d714306U, 0x87fdf33b153e1a09U,
  0x5291242c03f71fe6U, 0x197fbc0ac30ddb03U, 0xe6b422e7cc171e2dU, 0x63104d2110167f15U,
  0xf70835812ad5ea45U, 0x607a31dfa00fa04U, 0xaf25f5fc03f70dccU, 0x91de10f030df37fU,
  0xd7e287245348817cU, 0x8d04279709505935U, 0xcef1a8f50d7f8635U, 0x92db04f0ea254f11U,
  0x1a1427f73d2cc202U, 0x851205aafd7f5e0bU, 0x87ffc0df3e5110fU, 0x29e2af70b190809U,
  0xfa0b67f856c2a713U, 0x103fe7ffe00fdfeU, 0x2581e53f0617f1eeU, 0x1e44852cf9e7cb06U,
  0x157fffffffefU, 0x30f800000057U, 0x1c190000669eU, 0x82000004f8U,
  0x5100002d23U, 0x48df00003f30U, 0xffffffcb00009c4fU, 0x3c300001978U,
  0xfffffde4000044c6U, 0x248bfffffe45U, 0x7ca00000234U, 0x42f800000624U,
  0x720000cff2U, 0xffffff5500001a8eU, 0xfffffc7e000001a7U, 0xffffffcaffffff66U,
  0x3cd0000061aU, 0xfffffd59000009d3U, 0x31f000000c6U, 0xffffffdaffffffddU,
  0x11bd200014c3aU, 0x12a30000031cU, 0xb4bfffffefeU, 0x6047000001b6U,
  0x6be60000007dU, 0x3b9e00000e13U, 0xfffffebc00001bb9U, 0x88f00001e35U,
  0x1fa00000025U, 0x376ffffff1fU, 0xfffffcc6fffffd6aU, 0x6e00004e31U,
  0xffffff1d00000f80U, 0x2cc00000d981U, 0x223bffffff44U, 0x278700000051U,
  0xf07ea1310a94a071U, 0xe32a8f7fcf9368b0U, 0x34e16275d57f7f3fU, 0x126d9a75b4018101U,
  0x8862dc97717af199U, 0xc8a2fd611e71a4f3U, 0xf1991a13055d7f20U, 0x231d197fbc98ef94U,
  0xaf0c37827f815eb2U, 0x967af7f8e88181e2U, 0xee1a815a677d545fU, 0x36e2b8d2605a4e81U,
  0xc7f9a1581b19056U, 0x8e3d8c03467f8d0fU, 0xa6814873aa1081fcU, 0xa27f5538ead03162U,
  0x5bb161718d81869eU, 0x4a0c36abd96d5ea2U, 0xff00d3f5dccb0aU, 0xf705ba1ed4f805f3U,
  0xf6c20408ea0eff40U, 0x117ea05a88ced3eU, 0x100abfd9626f95dU, 0x4a4c7fa3001e6f9U,
  0xd4e9090b15d6f93bU, 0x262e1234c5dda0edU, 0x80cf8da0d08ccU, 0xfa7f81fd2bf5107fU,
  0x908122c8407f7fb5U, 0x7f7f7f7f5b60723fU, 0x985c977fb107b228U, 0x817fcc817f9fe881U,
  0x7faae7716e7f516cU, 0xcf452e4ca681ae24U, 0x212f0a33a9a2eb81U, 0x7a8da181a38175a7U,
  0x817f02867fee0be2U, 0x9a9e0ff28184607fU, 0x7a6a8dda81755899U, 0x816c811285a0d17fU,
  0x8e2c81013d8e812fU, 0x4f8c7f7fbf026d7fU, 0x819d7f7f7f358b7fU, 0x7f817f238195819aU,
  0x818181b1465e7f81U, 0x2fdfb7f2202060cU, 0xe3e002e838f608c8U, 0x4ee0d09110e0126U,
  0xcb0de2fea481f058U, 0xfefc96f786d5036fU, 0xf19a99f3def0112aU, 0xc51d0a2ed747f659U,
  0x3d541802aae599f5U, 0xcd6da01211114beU, 0x112c9d2ceec531bU, 0x814d01cdf2ec0febU,
  0x35fa3818e726000dU, 0xff0cdf06db050ef3U, 0xe419f3e11dfb02dcU, 0xd6e4ff178515fd00U,
  0x92113254d240807U, 0x80c07c5d7f50805U, 0xd81126daeeec22ffU, 0xdc0c0a799bed70f9U,
  0x8b4ffdb41a030f38U, 0x3cf5c7f70e130af8U, 0xf905d8ecbef50f00U, 0xeb0cd8ff1af3f3faU,
  0xffc3371a7f021506U, 0xf8e72530a1fa1309U, 0xada11dad0efe604U, 0x340a4ced080928f8U,
  0x6fb03b5e8fc2f03U, 0xe41c03faf61102deU, 0xbea01020001f7fbU, 0xf5f0e1f3ff0eU,
  0x3e701c8f70d1cU, 0x6d8d4fdf7000803U, 0xfef9051414e11100U, 0xff1a01e7e600ec03U,
  0xf4031904f90b01f9U, 0x32b000002a5U, 0xffffffd800004e6eU, 0xdb000000014U,
  0x1dc7fffffd8bU, 0x111fffffffaU, 0xffffffe0fffffffdU, 0xa14fffffe3cU,
  0x1a5400000008U, 0xffffff4700000009U, 0xfffffffd0000000eU, 0xfffffeea00000dfcU,
  0xfffff5cc000001d7U, 0x333cffffcb5cU, 0xa0600001a50U, 0x2d4000001ddU,
  0x122500000274U, 0xad1000008e0U, 0x375ffffffdaU, 0x4200000340bU,
  0xb8f00000a1cU, 0x124ffffebb1U, 0x40000003dU, 0xffffff77000005a7U,
  0xffffff3500000d02U, 0xffffffb7fffffe5aU, 0x500000004U, 0x36ffffff43cU,
  0xec1fffffffeU, 0x64d00000781U, 0x30800006500U, 0x2bc00000ae1U,
  0x2d00000004U, 0x30c00001767U, 0xfffffe3c0000016bU, 0x965U,
  0x100002647U, 0x481173404c00212U, 0x11d304bc4838ea00U, 0xdffc240ddc020264U,
  0x83f1911dfe341f8U, 0x10091f04f0f81a09U, 0x45da2c04f1230807U, 0xf7f40b0435edcb2bU,
  0xd31da1924b7e30aU, 0xf0c7e9ef47570e1bU, 0x4481ee03140757dcU, 0xf0fec100109ffdeU,
  0xf90be7e512f3fae1U, 0xec07f9f2040fd4fcU, 0xfffef762fb040107U, 0xfefaf39f0ff509feU,
  0x90fb3ff0a0c0df8U, 0x9d4fde3f5ff01fbU, 0x120a0ffa04dd92e4U, 0x1c1fef0e02030601U,
  0xfe15ef13181415ecU, 0x236aea080a39fc06U, 0xf3010eceefdf0ee9U, 0xd80d4a0b03017f58U,
  0xeeb08e90bcd1e0aU, 0x310ee6f518e5061aU, 0x3eadbd17403dbd0U, 0x120121ea15fcdbf0U,
  0xd4171e0020130698U, 0xf41823d6ff001a0fU, 0xdc1a12811cfbf0fcU, 0xeef108e40eec170dU,
  0x8d0066e00facc0fU, 0xa0e2315d6fe2eU, 0x210150702fd15fdU, 0xe1a36041317fe12U,
  0x13dd0e0bf70c030eU, 0xf3194db905c4e2e0U, 0x92f811ababb9271fU, 0x7d0830c1aade1509U,
  0x929fff01736c2e0U, 0x6302a7fc2ef1140U, 0xe3d849f3aafebe0fU, 0x497f3f3b5b9bdf5U,
  0x2040ee024cc30d16U, 0x96b9bbd1c217fe4aU, 0xf70202fb01fffeU, 0xe308fc24010201feU,
  0xf908ffff01fffd02U, 0x104fd00fffe0e04U, 0x5fbef00f4fdfefcU, 0x3fcfffb00000200U,
  0xf703fc7fff05fe01U, 0x402fff5f00405e9U, 0x3020802fe0303U, 0x1f543da650ef2f7U,
  0x950ebf2e4e8e818U, 0xf7d00dffe2515411U, 0x59f4a81ee8ecaddbU, 0x16c2fe382172e42aU,
  0x26eff60fd1057feaU, 0x20d50f17e01b0b01U, 0x270a1d13f027fffeU, 0xdb6a782b1c251511U,
  0xf6b8599df9ddf414U, 0x19211c24818e2225U, 0xfc0bf920a80cdae4U, 0xf90e12fffed1520eU,
  0xed24fe262909f8e0U, 0xd523f526a4ff473dU, 0x28e190390e5f2ffU, 0xe8fc1115deddf6efU,
  0x8fb1310dc4191a2bU, 0xb9fa0b6226081bU, 0xf04210810402f6e9U, 0xd80be019090208e6U,
  0xa5f9ff0f00f22302U, 0x1129ffe9e0e9fa08U, 0x15f5e6070715194fU, 0xfbf80ceb1000f9f6U,
  0x8e9facd0924040bU, 0xcbf21f808ed0bd9U, 0x222608f0be4c7f15U, 0xfdf2216cf4f4fd2cU,
  0x19e90f0bf11ff11dU, 0x43a4270df8e35401U, 0x12553b1700f7ebe8U, 0xf61420f2f522f0e0U,
  0x8f500f8e9fa0216U, 0xf9330311365adaf9U, 0xf262f0c90041f017U, 0x1ac528ed22100a20U,
  0x4263fb7edf2c068U, 0xe30d6b36291f0d17U, 0x1fe9ece5ef34222fU, 0xf581bcf445045bebU,
  0xf13f5fd015aff230U, 0x2914e6ece90d2334U, 0xab49decc0f142232U, 0x11e31342e42f0f49U,
  0xeddbf905020bfc0bU, 0xcd10f75c0c0affe9U, 0x4381ea07fdfb0efbU, 0xfd03f5ef281b1ec6U,
  0x6f94ee677070dffU, 0x1532df0d03ee11fdU, 0x4d01080309f5fdfeU, 0xf8eb0a195f0c24e1U,
  0x512101111f315f7U, 0x10901fc12fc0206U, 0x3df40c9afbfd0905U, 0x81e0fc0afff10102U,
  0xbfb0af71cf9ceecU, 0xfa221ffb1e0a1007U, 0xfb1afffefcf900fdU, 0x1efd025cfbeb04feU,
  0xf804fde53d00fa2fU, 0xfefffbf1fc07fd04U, 0x3712ebecd1fb81f9U, 0x5100bf4dde88effU,
  0x4ecfa052a0a02bfU, 0x404110ee3ea3d0fU, 0x5533033514fdfff7U, 0xdb07eeb31b0d03ffU,
  0xe1fcb0ce7023a22U, 0xf3e6f71b16f6e001U, 0x1ef51eeae9fabd04U, 0x1e2fffef100f031U,
  0xfbf709f8f9fae402U, 0xd7ff736f25e1502U, 0x2200f4f540260815U, 0x181cfccf13151528U,
  0x72ddef7f5e50eeaU, 0xc5f70700f60b03baU, 0xdcf80758da053100U, 0xf71b060a07030e0aU,
  0xd3c0e715c47ba6f8U, 0x18bb1f260e0d21f2U, 0xef0ff3f1eaef1408U, 0x1786fb0cfafd0c03U,
  0xe6fbf6c8dfe10516U, 0xfae9f8370202c3e4U, 0x1f225fb0cecdf00U, 0x7fefae9147f0015U,
  0xf06facfef8f72cf8U, 0xba27f80703ef53e9U, 0x10e6f401010181a0U, 0xde19e2efc5d50ae1U,
  0xff180f07f9fb2d14U, 0x5db4ded6e4f5230aU, 0x20f6ba32d8f116ebU, 0xdca2b1409f6c717U,
  0xf1bbd8fd1de81918U, 0xce01f24611e44df4U, 0x3c4f301fefef203U, 0xd0f9f1e505ffe9ddU,
  0x272dd005f13ceafbU, 0xfc1522f9d781ba23U, 0x1c14fce229f904eeU, 0xf931dd2ffee4deecU,
  0x2cfa180b0307f120U, 0xccd8170b20f9b912U, 0xfb1bddf2f61c11fcU, 0x3b350ee461554f4cU,
  0xa051726cdbd89945U, 0xfef10b5d28de11e9U, 0xf4af0a1beebbe9d9U, 0x234b16ef2f12612fU,
  0xe8b90ebd1a54ed73U, 0xe929c21deedc5b26U, 0x20008146ff6ccb08U, 0x1ecd240de358d14fU,
  0xf7f721f72b0fe2f8U, 0xf048f30af5fde718U, 0x3f2016ff2181e3f9U, 0x3ff741fd3dead319U,
  0xfddde615a04b26e1U, 0xaf9110a05174ef4U, 0xc11606e8f3e233eaU, 0xe20ab1fe061eeeeaU,
  0x164a64140d0c140fU, 0x5f2ee1fec9e5eb00U, 0xfed00acc0f0f7e01U, 0xf1f5a6f2de1d1737U,
  0xff0f2934e911360dU, 0x81051f2e32db1addU, 0xaecc3b9f73fd8e8U, 0xbde9c80a05efeb1aU,
  0xded5bc451edd2f15U, 0xedf3c64e0b40920fU, 0x1311fa07eef30909U, 0xfcf5f71407031f03U,
  0xcfff505fbd16707U, 0xec0ce43b1aeb1427U, 0xe22f810912ecca08U, 0x4000f8feeaf4fcU,
  0x2902f8fa04fdf9ffU, 0xad0110fc36eed8e8U, 0xffedf3db0402eaefU, 0x3a52192d7f30d002U,
  0xfcfbfeb13f3afaa9U, 0xf7fef30093f5e95fU, 0xf7daf8f124fbfe0cU, 0x5ede1530803e7e8U,
  0x7d2c00beafef320bU, 0xff9fcbf13d0e86dbU, 0xe8e11eefcc3ff9e9U, 0xab20f6ef6123bce3U,
  0x27fffaffc0e3070dU, 0x10dc0ef8fffee028U, 0xe902161d11fc1c0eU, 0xfd14abe174b441c0U,
  0xfcd712f0bad2e32fU, 0xe50418ea1a13c5feU, 0xe313f1f3fc140881U, 0x451123fbb1d8b812U,
  0xdd7d4fef139ef14U, 0xfffff81200001efbU, 0xffffe815ffffd7c9U, 0xfffff0b900002537U,
  0xfbeffffd0e6U, 0xffff7fe6fffffdc8U, 0xffffe7ffffffe54dU, 0xfffffb0800000906U,
  0xffffc3b8ffffe43dU, 0x149800000fc0U, 0xffffebc5ffffa89eU, 0x46500000457U,
  0x1ba5ffffd516U, 0xacc9f87ff0bbfbdcU, 0x5905e704f4171df6U, 0x1bf9f02acf1b5814U,
  0xbb47df23c3eb51fdU, 0xe613da42e1cbf781U, 0xecd8ffe837bb4a00U, 0xbe7f31f6c8f7d837U,
  0x21b3158f83c10228U, 0xb5abd11f9336e4ecU, 0xf60400ea00040fd4U, 0x7fffeef5fc073cf6U,
  0xf51ff3e8fe2afbf1U, 0xd11c1fef20ef302U, 0xfb9905247f0204eaU, 0x1304fee5dd0707f2U,
  0x120df4f909ef1fafU, 0x121907e92205b10cU, 0xebf0e555eafdfa7fU, 0x1124fb1463d07f0aU,
  0x50d32f706d5ecc8U, 0xf51c0a26fb271012U, 0xf411fe070202f55bU, 0x804c60009f2fb0aU,
  0xf07f010bf3f3fc2aU, 0x7f304ec8116520fU, 0x212c100b40e813U, 0x1b18f327045a1903U,
  0xce8c02c0c700689fU, 0x7f020afc298fc31dU, 0x17ac1d43a78e386cU, 0x507111a02cc8120U,
  0x4907c8f51b320324U, 0x18bbf0cb0b012844U, 0x3fce54e4041ce209U, 0x2b052b8133f239dfU,
  0x1bf81200e4f5d620U, 0x9f2140009090acbU, 0x19088ae7455caddcU, 0xc0eae27ff2fd90e7U,
  0xe94612df07fde9e2U, 0xc23e19f71205612eU, 0x9faaf16828133afU, 0xfd06e8280913f33bU,
  0x1e77a12d09647feU, 0x500d318303647f21U, 0x1f06e6f32229100eU, 0xf8a239e8c6de2fe5U,
  0x5821ffbf12097ffdU, 0x2be815fa0a2251f6U, 0x97f4f0cd1bde81e8U, 0xd62107e8f8510adcU,
  0x4928b781e716382aU, 0x6bfb306dbce8229eU, 0xff101dffcb2ac47U, 0xfc0feafdf4ff81dcU,
  0x241cbeebe7e34c36U, 0xfee12108e9f507c3U, 0x1d8d10522ebe0dcU, 0x2ecef2beb34d47fU,
  0xa22ec13d84309f4U, 0xee0a01e9fef81bddU, 0x7f04f7f8fe083decU, 0xfb1af8f0ff2002f7U,
  0xd825a400f2cf41eeU, 0x250fd87fb2e3d2cdU, 0xf403f0fdf8022004U, 0xe2f0f3f4f51c81b0U,
  0xc9eff50aefd8feffU, 0xf9070507f0f8f829U, 0x10ecf9fbf4fe2a81U, 0xfdfa3aeff1f61df2U,
  0xba20c00fef6f8c6U, 0x1a01fbeb1cf508e9U, 0x7f0bfd040108150dU, 0xeb28f5edee5df1f2U,
  0xf2ee4749fd5a44e1U, 0x7f423428d2666125U, 0x29fdae2231ae2856U, 0xcf61bf605ef1c03U,
  0x7f090714fbfe27f0U, 0xfd00fc07f201ea08U, 0x7f25f85ff1f60ccdU, 0xef8070be7fc1dfeU,
  0xff13fd0cfbf2fb27U, 0xfc0b0619fb03a514U, 0x46197ff9f1f19cfaU, 0xfc0ff11833d50bc1U,
  0xc9440a1bd90b0c17U, 0x56d22cdac116c60eU, 0xe9cc77260138dd7fU, 0xe71b0032fe031204U,
  0x2611dbfcfaade71bU, 0x7ff6c4012a1ab102U, 0xe0d9ef1e81e20623U, 0xd3495f27fc13382dU,
  0xef130893e734d3ecU, 0xf112011e7feb030eU, 0xced0ff500d909daU, 0xf0fc06f206d9e521U,
  0x2ddf3165c1287f17U, 0x3ad80e13e4514afbU, 0xfc18dee507b5d1d0U, 0x231502da0a1e01d2U,
  0x16fbaaec0c36bcfbU, 0x8efea7ff4d6d2f8U, 0xb5ef035b01cdf708U, 0xcc1ddd815ceb07d1U,
  0xecf3f2190e3350d5U, 0xf3f71b08007feaU, 0xe80a4c06ffe504fcU, 0xfb250d37ed06ecf0U,
  0xdc9a314f6bd1e20U, 0x7f07276bba290dd0U, 0x31e7e726b0f7f85fU, 0xd626f1ea07e4f6f7U,
  0x7f1103ecf0ff6931U, 0xf10afd080af6fde9U, 0x3a100ad2ff34f31aU, 0x4c54816c9d521feU,
  0x670e17d118297f24U, 0xf000f51debf5260fU, 0xf90e7f0505f603f9U, 0xc10e6c5f33e0c75U,
  0x3dd80302f8434ed0U, 0xe1dd1210182d81b6U, 0x739d3b90f5e1569U, 0xfa0a0814f805ce45U,
  0xe5fecf11fe08f60aU, 0xfc7ffb0ae108fd43U, 0x43db7fea1430de11U, 0x42e813b3fee91c06U,
  0x37ee24d9f14c3a16U, 0xfbfdfe0c02107fedU, 0xecf947fcf6fbfdf2U, 0x429032ef109f3f6U,
  0x1cf50d0d191a7f15U, 0x62f01afb1d19081aU, 0xefee30d08fa101aU, 0xf3dd811c42e9effaU,
  0xfcd41814ed0aea67U, 0x32afce9e11808f3U, 0x2f003f704fc0f9eU, 0xf6fd41fcf5090aefU,
  0xc8103f20b0ffcd0U, 0x2e1fbf4070b4cf4U, 0xc501810d080161f7U, 0x7e327edf424ee49U,
  0x3e9e1a1de6fb0012U, 0x7ffe23cc080530b8U, 0x34ed1310b2fae646U, 0xff0481eefef80512U,
  0xfb03fdecff0ef9f6U, 0x800f4f908f3fb03U, 0xdefe0223be60f93bU, 0x1bd0361aff19c7f3U,
  0xdff0bd18047f074bU, 0x1227e908f3e781f9U, 0x2f02d8f8001234e3U, 0xad1f0f20ee0fe1bU,
  0x3c6f128d0a3f20d9U, 0x81e1e20ffe0eb46fU, 0xce13f9c44ee9dfcdU, 0xf91109317f097101U,
  0xfce27e5fb07f1c2U, 0xb1bf6f010bef82aU, 0x4127fbe0191d47b4U, 0x15d7fefd13e6baffU,
  0x2ffff17f12095369U, 0xf7dafb2de23d9781U, 0xf3d0fe17d8f8f305U, 0xb13f002e300f563U,
  0xebf6f238f3d84adcU, 0xf5277f060ed1fc14U, 0xd600f1b7de05e374U, 0xdf67d81b0f60f8e9U,
  0xf6e215116f4001f7U, 0x2bf316cf81c821f9U, 0xfc110fe6f5cff80bU, 0x13f025d7ad22fe06U,
  0xc5fa7ffb09071926U, 0x81ec0ab00904f027U, 0xf3060bf6160efc0dU, 0x7f0f90808fe06f1U,
  0x11fbdee5eec358fcU, 0xbc90812d7bf16bddU, 0xf6de24dfcd54d93cU, 0xd8e14c4ef3f3e7faU,
  0x1f0fee8139ff0dcfU, 0xfdfa00f6fe2b2a05U, 0x8b4e2309f0b1e7d2U, 0x81fafce7dfcd272bU,
  0x52b0c32101b00117U, 0xf801f00c05f15ac1U, 0xf2184a0a26d3c018U, 0xeef8fa1ff9faf67fU,
  0xf3051627fffd0215U, 0x3749d7c98481db2fU, 0x4de9b81d522accfaU, 0x4903f39218f6e038U,
  0x301b1f7fc4f9fcfeU, 0xfcf50d04da09ae10U, 0xdb0df731d33b19fcU, 0x2ccacfdfe5fee00fU,
  0x7f0bf2b731e3d2e5U, 0x1cb0bf50ddffdeeU, 0xc63f3c28115cefeU, 0x2c2043f569e01612U,
  0xe24a0720fc7ffcf5U, 0x361ce7e8de0fcb06U, 0x2ae82ff7c4fb021bU, 0x3d1efe8db31f6f9U,
  0xebb3fbe4ef7f05f1U, 0xb81b44bb02b847d6U, 0x1f5efee51b0af994U, 0x7f04fa08fd007b51U,
  0xcd43f2fa3723e0e4U, 0xdff7fc3036f1161eU, 0xf0ef4403e3e62defU, 0xe616fb81facfd60bU,
  0xcfa081c0c241722U, 0x81fd0e270cff96dfU, 0xf10a09f71b5f0506U, 0x75b81ddb0325ea08U,
  0x7ff329ca0cfa4ae7U, 0x1cf921f8c705ac25U, 0xd4fee8c9e60aab0bU, 0x81d1b31525dbd3fbU,
  0xe00713ed100f02adU, 0x26060efefcea7f40U, 0x4712f2f2190aef16U, 0xfee0fbe90ee312daU,
  0xbc0dffe9e60381f3U, 0xa001e204f0db03f8U, 0xeaed05fc0ffc07e7U, 0x1faea0dfbf6112aU,
  0x1ff2ccfbf9de0707U, 0x27f090fdfdffc17U, 0x6f9f722fa018c09U, 0x62f77f2227078efeU,
  0x32612fd28d3faacU, 0x1ec30135f102d631U, 0x81f71305ecf6bbfaU, 0x1fcd1217d6d5fe18U,
  0x2cb0304e6ba1101U, 0x12d5e302eaf7e302U, 0x280b2f147f1bcf2eU, 0x11f4f20a7fd50016U,
  0x35ddf6f4e6b8cfddU, 0xd70b0ebaca5be7f5U, 0x34090c290cf27f1aU, 0x330519fd121efcffU,
  0x600f2010afc070cU, 0xfe061501133bfefaU, 0x464f5bb81fdef14U, 0x1faf903fdda13fdU,
  0xf3fc810cfef20608U, 0xfc0205a50904feffU, 0xf901f7f0ff110803U, 0xe1e3f130eefd10e2U,
  0x2bbece1039c1ffU, 0x9cebea4aefdc81f0U, 0x490581b7cb1d0ff1U, 0x18dce5ba2d24f2f5U,
  0x4f10f06c2d227408U, 0x35c7fffff3d3U, 0xbe00001676U, 0xfffff3dc000009e1U,
  0x4c8fffff4c4U, 0xffffff3e00000104U, 0xfffffa7a000099e0U, 0x3caa0000ac50U,
  0x1e000001634U, 0xfffff8cb00001502U, 0x84e00000eb3U, 0x38efffff95fU,
  0x5b90000098fU, 0x61e5fffff378U, 0xfffff63a0000682fU, 0xfffffea400000409U,
  0x216900000fd0U, 0x3e97ffffffacU, 0xc1100000082U, 0xffffec3a000004e3U,
  0x596000059e9U, 0x1178fffff609U, 0x4b300000d77U, 0x5108fffff9e0U,
  0xffffff30000019d0U, 0xfffff457000002b3U, 0x389fffffc04U, 0xfffffc5100000aedU,
  0xfffff2f800000770U, 0xfffff3c000001184U, 0xac100000b5eU, 0xa3600002b97U,
  0x112c000001afU, 0x1513fffff9e3U, 0x6f800000b29U, 0xee500000679U,
  0xfffffed900000ab4U, 0xa787000006e9U, 0x1d36fffff9d0U, 0x1c7700000571U,
  0x985100000584U, 0xfffffec300000ac5U, 0xfffff8af00001273U, 0xfffff79800000823U,
  0xc3d00000751U, 0xfbd8ef0509f8ff0aU, 0xf6f608fdf00a7305U, 0x81f40bfbfce6e2d6U,
  0x4f9dfe50c1309e8U, 0xf3f0f908fa02f90cU, 0x8ef01fd29020f0aU, 0x800fbe2e6e6fafdU,
  0x19010dffebfd01feU, 0x38f1ffe60cf9e412U, 0x17fff0a120af3fbU, 0xcef401e8f7e5fb02U,
  0xdd350ffcfbee0d22U, 0xf2e80008dffc69f9U, 0xf6cb050df7b27f7fU, 0xf8fbfe8153de5dd6U,
  0xf301f2fc9b092e3eU, 0x49ea5099ddbe706U, 0xfafe0d81e57f06fcU, 0xb7f81eef5cafddfU,
  0x7f0deaf8fa81fcf4U, 0xfec7ccebc92acd03U, 0x7df1fcb128e80b0dU, 0x1adfe010800fc05U,
  0xfaf20c01f60c36fdU, 0x7b0c07fafceae6d8U, 0xfe81d8ef0f0202U, 0xf9f7f80aff04f9f0U,
  0xf6710dfef9fe090bU, 0x8fdfd0f11faf9fbU, 0xd0f7f005f3ff0afeU, 0x30800fef9fd0213U,
  0xba060a0a05ed00U, 0xf1fafaf6f01905fdU, 0xd9d77f81040bfef0U, 0x5ac81374f4f67fc1U,
  0x3810c0a022af4b6U, 0xf15bfbf37f35ee12U, 0x7fe20afbfd274016U, 0xf970b60d03d0465bU,
  0x2ef5ff1886e40af1U, 0xe4effaed81170ae2U, 0x5d7f457f8109810eU, 0xffcebaee57ef96f0U,
  0x2d7ff53b337f2dd3U, 0x817f2770817f8181U, 0x817f7f7f7f7f947fU, 0xcfd9817f7f7f3039U,
  0x7f7fad6bdd81817fU, 0xf27f7f817f81817fU, 0x7f0a7f7f2b7f8181U, 0x817f7fcd81167f7fU,
  0x7f4d27811a7f817fU, 0x41b9810a54782881U, 0x7f057f7f8181627fU, 0x810c7f7f8101817fU,
  0xf1a5c00c18c50901U, 0x262903feedfc3005U, 0xdad019f8fd1fe5aaU, 0xf713b7f47135ff02U,
  0xf7c5f60803072bf0U, 0xf58181faf0ef3bbcU, 0x1eda08ff29dcf5f5U, 0x21f306011e1530c4U,
  0x1bca4ae03b040217U, 0xfcf4bbe0490681faU, 0x11f6d818349f03b8U, 0xcfef1609f6010aU,
  0xeefcfb05f6092c04U, 0x7f0a0d0002f304f3U, 0x3f3c6edeb01ffdaU, 0xf303f00cfc02f617U,
  0xf7b307f9c2fe0d00U, 0x701fc0b01f9f7faU, 0xcbfbf807e7f505faU, 0xfae3faef1a0beb0fU,
  0xfdb4fe0c020b0e03U, 0xaf5fee5f3cafaf9U, 0xf12210e014de0d27U, 0xfaebf813f8041cf2U,
  0xd2c903faefb8cb52U, 0xf3fae71453ee3a9fU, 0xefcb0415ef132819U, 0xf74882fb7feeec04U,
  0x3f0227818a2fdf9U, 0xf5c92204f4c605caU, 0x2916f0f4f50600faU, 0xffebcdce131e3f4U,
  0xf4f6f5b130e911d3U, 0x7c8fefb0301fc07U, 0xfcf000faf50606fdU, 0xad010b0000ee02e1U,
  0xfefe89f5cc06f6e2U, 0xf812ed070000f2faU, 0x80314fdfdff0704U, 0x500f6fb12fbf8fbU,
  0x11f70209f3fc03feU, 0x30dfb02f1070111U, 0xfd47060afd061502U, 0xcfafdf2ef1607fcU,
  0xb7f00000136U, 0x165200000b29U, 0x183000015e7U, 0x1417fffffb3dU,
  0x1fd6fffffcc5U, 0x568fffff35dU, 0xfffff043ffffdd40U, 0x3c3000003e8U,
  0xac000030a0U, 0xfffffa7b00002820U, 0x2f4efffffd26U, 0x557400000c95U,
  0xffffff21fffffd45U, 0xec600000642U, 0x7eb000003f8U, 0xfffff81cffffececU,
  0x98000000d89U, 0x18200001fd5U, 0x37100001aaaU, 0xda00000322U,
  0x6f2U, 0x3d900000011U, 0x4906fffffd3cU, 0x1e1c00000047U,
  0xfffffc85000000ccU, 0x38ef00001881U, 0x617ffffffd8U, 0x117fffffae5U,
  0x28400002a97U, 0xce4fffffef2U, 0xa150000140bU, 0xfffff9c2000006ebU,
  0xabb000002a1U, 0x32d900000381U, 0x236000001e0U, 0x900002327U,
  0x29abfffffabfU, 0x9d00000143U, 0x105d00000b2bU, 0xffffe81f0000308fU,
  0x171c00000002U, 0x30a000018d9U, 0x5dc00000103U, 0xffffff980000005eU,
  0x93f6e607330b00f7U, 0x14230917f7fdf925U, 0xf87f15c80fffef05U, 0x7fce2f83524edddU,
  0xdf6fff8ee251f16U, 0xfde3af2df3cf09f8U, 0x122300fecbf8fbfdU, 0x160af913f9f906bbU,
  0xe3fb1504e103f913U, 0x5e9187d09f10312U, 0xbe20defd21d0609U, 0x2d4b0dfe20f6f0ffU,
  0xf6e70602fe361f05U, 0xea46f7f106011022U, 0x9fc0c17222600f2U, 0xcdb018f18fcf5f1U,
  0x31033f7ffc15da06U, 0xe410db2bf2fede50U, 0xece9dfebff01e4baU, 0x1e0ceae901f100d8U,
  0xaeefe744f40c2ef5U, 0xf9fefa1ee4ed1d12U, 0xde3c0381dfd3df0fU, 0xfafaef02232108ceU,
  0xeef0e81f1a09f70eU, 0xdf0af1f6c9e3ebf3U, 0xd6eb03e3e1f804cdU, 0xf9f7d524f6fdde01U,
  0xfabee5fcdbd8f4f6U, 0xe434d5e50d38170aU, 0x2e09c491f92bf7cdU, 0x40f3efecc1050625U,
  0xe1c04e9edee19f6U, 0xf7fa25f312f5380dU, 0xf6eff3f8fd120008U, 0xb500c3f08748d53eU,
  0x7f05f9150148fb08U, 0x4ed0a16d8eff9d8U, 0xc5c60cf5eefc09dfU, 0xfe23e7f8fa01fadfU,
  0x1310020323e807fbU, 0x111018f612012622U, 0xecbdf2ff25e413a4U, 0xdffbea010b38ff0cU,
  0x82001ea08e613deU, 0xeade092d0bf0c6dfU, 0xed818d3e4fb17e7U, 0x3ed808e445d9f705U,
  0x4f00f7dc26d918f7U, 0x101460134e61a12U, 0x2e32c0afb1f3dedU, 0xf4e5f77ffaf9d9efU,
  0xd4eefefdf5aff201U, 0x190cd6eb120de7f7U, 0xeec7ebeee2f1fafcU, 0xfe1201e7ed200a02U,
  0x10c03ee56fc04fdU, 0xf5116410ee01c015U, 0xf1f40213fafa01f3U, 0xf00281fdd51aedf2U,
  0xf8090f0e3bfafc12U, 0xeffce7fa16e542e2U, 0xd5f0e0efaeceed3U, 0xcecfcffee27fe14U,
  0x27f4032902f712f8U, 0x259811ebf1e8faU, 0xf4042df4c9014125U, 0xfe09bb030ffcb309U,
  0xe4d0b3223ed90e26U, 0x1acb101c7ffe41f0U, 0xdfff19f328fdf811U, 0x2ed07e6e1e61bceU,
  0xf40aa2f3e200fc26U, 0xf4021976fa3df7c0U, 0x4acf12dedb0ce022U, 0xfe7e6fbfe2fb0f8U,
  0xe71ae330e41841d6U, 0x31c151b3d0be52bU, 0xf410f51316c8dfd3U, 0xf9e3e6bd08fde407U,
  0xf4201e094f0711f9U, 0xf4d21cf5cbc2f6e2U, 0xd50d58e1e5d90cdeU, 0x3c8f4083bd91be3U,
  0x1938107ffde70c06U, 0x1322f4073d412fffU, 0x13fbf9ea010c3531U, 0xef31f20900ccd90fU,
  0x806fbe7e5daf1U, 0xfe02062203e5fbfcU, 0x8ef07ebf10908U, 0xe4f5fbf4eec4d50cU,
  0x31515dfe3edbe11U, 0x10fa69fafcf50005U, 0xec02e00c06d418f4U, 0xe80ff81204f8ed03U,
  0xf801fc0303fdfffaU, 0x1ff812f0de3b9fdU, 0x202e6f5d21df8f8U, 0xeede326980e0802U,
  0x1b33fb341111d215U, 0x9bb1557fa18ede5U, 0x42af9fe1718e246U, 0x165b0802d2101615U,
  0xfb0b2df0100e2fe7U, 0x261318eff3db4466U, 0x334cb07fbe81215U, 0xfc1a1d121e2d212dU,
  0x81080fb905debe19U, 0x28e2fdff2602f4dfU, 0xeefdfef61b21f00dU, 0x2ad200a0ddc48116U,
  0x101c47fbebc7f1dfU, 0xd757ff1302f3f20cU, 0xcb22eef8f95c253cU, 0x951a7706f8ff3a14U,
  0x60eec01fcf800eeU, 0x13e1070629f72074U, 0xf9cb13e8b7fa1d25U, 0xf11705f8070023e1U,
  0x1bf5eb16f6da2b09U, 0xddd8f46942a7241aU, 0x2cfbbbf5ebd0a36U, 0x275852f20efdbe0dU,
  0xe7dcc5cbfe4244ccU, 0x12eb814b1bb4994dU, 0x200109c446041140U, 0xd93ca624ee3405acU,
  0x3b434dbf3c62f2dfU, 0x523d074623fbd217U, 0xb13175f59fb4ddbU, 0xed4b0a9e072d6004U,
  0x500fb1b12d3fe0eU, 0x61b1436a902ef05U, 0x24f181f81ff549d5U, 0x14fed9d61424040dU,
  0xe0779f908de251dU, 0x916f7f0bf031feaU, 0xa04130ee4d2b30bU, 0xf9c7f40322fe1014U,
  0xec02020e0a01f608U, 0xda2334e00126031bU, 0xd0acebd23f5170dU, 0x4d1ef3101318010cU,
  0x733fe43fb231418U, 0x2dafeee08e7f40aU, 0xff2af5010d1e0ef6U, 0x28fcfecaf72e0f1eU,
  0xf141e35f830fbeaU, 0x427ee0ee6f80381U, 0xf80c43ec0910d4ffU, 0xaed0404fa110ef2U,
  0x7c0d00cb03fce0f1U, 0x19c7fef019f4080eU, 0x12aab1811d0afcebU, 0x2fefb6f000de2274U,
  0x2cfe18e85fe40becU, 0xdcd80d23725117feU, 0x4b2ff6091bfa1376U, 0x2a23e6e4ff132b44U,
  0xa73e51c1828f0e8U, 0x29e8d40f36f5dab5U, 0xe0361cc73a01522fU, 0xec222f175b05ee32U,
  0x1ac22c321c0cb617U, 0xe9e5e8ff8bf0fee1U, 0x4f009e3edf716f4U, 0xe82b107f065211f4U,
  0xf5edfbf8fb21005dU, 0xf764114c03f9f1e3U, 0xfff71fcff9fe0317U, 0xdeb3dec20ff2b87U,
  0x21f92be40fff1a04U, 0x6e807f5e3fc0414U, 0x59e4fe35ebe5c011U, 0x2030ae6fc0e04c7U,
  0xc0114dd913ba21fdU, 0xdb173b1d0af3590eU, 0xf0ab02cf1002e617U, 0xc204dd24333027f7U,
  0xdcd1103efa2d81f7U, 0x5adee99defcfb8d1U, 0xb312fbfb99de2f5cU, 0xfb03c73913f49b0fU,
  0x58ec9d8d10dd5a6U, 0xa8ddbdf1d0e6bdb6U, 0xd3f0fb28d03f24f0U, 0x12f72ce6f31d27d8U,
  0xbf7ae419efeaffedU, 0x3d251a02f20121d2U, 0x226ffef8eec41904U, 0xb51ad7154ae8261fU,
  0x251c34f9250515a1U, 0xe8f41ffe0c2302faU, 0xfc9cecfb1511240aU, 0xcc1de8fb29972d0fU,
  0xf933082c1810e8e1U, 0xdb7fe901feefd5f8U, 0xde12e81912e89ad8U, 0x220615150e340dfbU,
  0x81cf1b052c763247U, 0xb3ebf9150d4be708U, 0xe3e5fc203de9dcd7U, 0xa4e10bf0effd150dU,
  0x7efdbe8ed14ff01U, 0xbc6031215df010eU, 0x15ec1605f3c50709U, 0xe496e5df00052454U,
  0x20e0cebff350613U, 0x140210f9e3b93122U, 0x3077ffd15eebe00U, 0xfc0ddf2934e5000aU,
  0xcd3d712230c3ee9U, 0xe401ef081e171b15U, 0xe40c04edf41414f1U, 0xfb0890faee02ddf6U,
  0xb0f04ab00e3U, 0x51e2ff28e513ed15U, 0x27020e10022adcf2U, 0xfd14030cf4ffdaeaU,
  0x9f03601fc0d11e7U, 0x29c0178efa470840U, 0x1ccd0fe0fbeffffdU, 0x230cf5eb1d16f3f2U,
  0xaf0d0abcf6a04234U, 0x4605043b04101c0fU, 0xeb45280ee2f622d9U, 0x10204020fec26cdU,
  0xce0316210df40e09U, 0x2b16f3d529e2ca25U, 0x97ff8e8100edf07U, 0x4fbf4eb1202f503U,
  0xfc0cf90c060f1505U, 0xefef9edf909f6fbU, 0x120fe8f4ff0ff2fcU, 0x13f8fef0ecce15fbU,
  0xf09e912030202feU, 0x50b052000fa08U, 0xf70fef023efa0bf3U, 0xea81060a8913ea07U,
  0xed0b18f812f8251cU, 0x2170cf01200fd0cU, 0x810ffe0cf304fa0bU, 0xfc00fc1a0413ecfbU,
  0x27cceb1705f206f7U, 0x7001003f2fb0a0bU, 0xcfcffd1060af3ffU, 0x1a07250f01cc07f5U,
  0xfef8101a1e09f9f1U, 0x340410ef0107fc28U, 0xc16fc0b150307feU, 0xa0807b5fd0829feU,
  0x5f5f80b21f3f903U, 0xe0812f20bd1fdfdU, 0x6440301ea13f609U, 0xed1d33ebe90de8f5U,
  0xfd8110f6ec01e602U, 0xb9f9fffced312510U, 0xe6010014fb090fbfU, 0xfe0322ee06f61be2U,
  0xf4f20300e6fd1a0dU, 0xe71223fa0b01dc17U, 0xfef7010109e7ee04U, 0xd2ff4f3f9fa2b01U,
  0xcd5ffffed53U, 0x20c500005520U, 0x14e00002244U, 0xfffff454000049c7U,
  0xffffe8a600003675U, 0xffff5e9efffffaf5U, 0xfffff2ac00002ea6U, 0xfffffe84ffffa57eU,
  0xffffcec1000054e9U, 0x34c100002091U, 0x453300000835U, 0xffffe4ac0000023eU,
  0x32ef05160c017f29U, 0x93fd31fd090ab11bU, 0x51d1411f60904deU, 0xc2e4153481d115fdU,
  0x195ce3db1b17d8b3U, 0xda08f3f1e821e1bbU, 0xec44ea0311650aeaU, 0xf731fd27572606f6U,
  0x1bec02df81f80efeU, 0x4fbf0bce18e67803U, 0x2413f206496be5f2U, 0xd31a23a4f9033181U,
  0x341c5dd063802ccU, 0x440ce1781d3d81f8U, 0xfbeedf48b40408deU, 0x41af218073fb50dU,
  0x5d0a7f143e148efcU, 0x408eb10e0f903d1U, 0xf10e8104ffe813fcU, 0xd09055ec3feda09U,
  0xee05fce1f80b0eebU, 0x92a7fd013ec0004U, 0xee05013b09d604feU, 0xda0c1302eb0411cbU,
  0xdfddfae90df581b9U, 0xcdf1f30a0dfbe5eeU, 0xb0af9dfe91fef2eU, 0xf6d7e7f7930760c9U,
  0xd6210a0019e9e7d6U, 0xc06f3216e28134e8U, 0x2624e4eddfe9ee0cU, 0xb4ae5072a8124edU,
  0xb3096b2cccee3298U, 0x15080fd0130bd918U, 0xd00033afaf2e1a0aU, 0x81f39911b00d3bfaU,
  0xf10dfd1231f82703U, 0xfa100de815e2d1eeU, 0xb8eddee108148111U, 0xf721e8e301cd810eU,
  0xc04113f10e0022f5U, 0xd8011228dd0623f4U, 0x200716a57fe90ffdU, 0x20e7061007f9ea97U,
  0x37ef0ae51117e72aU, 0xca44fac41cfa81faU, 0x8404cce72f3dc664U, 0x10ebe7964811f181U,
  0x5082e14f90bcb2cU, 0x7f067727f9ebaefdU, 0xff07f83745efe8e9U, 0xf92d26edfcf0fdf6U,
  0x5d3130bf127e30aU, 0xebfd7feaf406041cU, 0x2d482cb413191c06U, 0xf6d32dfce9cee604U,
  0x55fd1d082e6a7f43U, 0x5ce0ffac3c1ceb17U, 0x2e001516fddf3418U, 0xfee62602d6e88113U,
  0xf4182c28034dce1eU, 0xfb1f7fa55cef20f9U, 0x11040b97baf40ff2U, 0xf4ea1dfc2b1b11caU,
  0xdbc1f8c9df5a810dU, 0x5cf9ad872d3dae54U, 0x4933f526f1c1811aU, 0x7d27a7071f2518fdU,
  0xfe8dd5b30ff70d52U, 0x5fb13f7fd077ffbU, 0xf2f525ef07d9d026U, 0xfa2a0c05f8f90b1dU,
  0x309ae7d111cf81cfU, 0xd813eff713f49ef1U, 0xe3e813b88b0d1753U, 0x8e6f730df377ffcU,
  0x9ec1afff4f4fb18U, 0xb2ffc1328d5fd37U, 0xffefc0aede74f87U, 0x30d5107f8162df7U,
  0xd8100070cec05d4U, 0x3906ed02e4ee1d36U, 0x81170aef1b23a2f8U, 0xfff808ebf7f808efU,
  0x67ff207fafefaU, 0xfc02fe47f003f804U, 0xff01fdfbf4fd03feU, 0xfcfaefe3ebf1ee07U,
  0x2ffd050a0a0f81U, 0x306051506f4f7f3U, 0x16f51908f447e1aeU, 0xe5c4cff3e704a9ebU,
  0xe707d8813b11eb10U, 0x3712f8b9ece3fa1bU, 0xf981153455e535f2U, 0x320b0b0f140427edU,
  0x20f51622bf1a40daU, 0x2be80e0ce0081c7fU, 0x1b2b1508e7bd193cU, 0x25e335e02e7af8f8U,
  0x363efe58108e809U, 0x18052ee51fef3f17U, 0xaaf5d45e08d70fe3U, 0x16b306ff4034d039U,
  0x81fa4be7ee06d90dU, 0x51a81e3fff308f2U, 0xee10fca717edf2f0U, 0xfdf205eb160f04cdU,
  0x1a22ed07de2356e4U, 0x81ea20ec1e128d06U, 0xfb19d9c05deaf22cU, 0x4a1e568c07bcea13U,
  0xb6811e7a51c73f2aU, 0x34199707e7f72cc8U, 0xa1c6de7f58b948b9U, 0x2ed9eef1f74be135U,
  0x1b34b9f2e4cc092eU, 0xf1f6da09f9f3f12bU, 0xdf106002dade4d0dU, 0x110a13810b090dfcU,
  0x2eb762eff1d2d4f2U, 0x37c700811407bbf8U, 0xee11f8757700eef9U, 0x91a50bb608376294U,
  0x4ad82903e2d13bf5U, 0xff7f232ed2fff4d3U, 0xfda9e71113dfb1dbU, 0x7324d311050d7f34U,
  0x231048209b1017b1U, 0xecfe5caf5a034dfU, 0xeedf8127b317f103U, 0xef04fe3f5706f717U,
  0x2800e3b73bfc07f0U, 0xefc4ee0ee10efebfU, 0x45232b0109811905U, 0x14ce51151213f1faU,
  0x9f30e81321c321dU, 0x28f7fff6e706f11eU, 0xe6fe941103eeff2fU, 0xea215e0cd8d72c02U,
  0xd171a81040a08e3U, 0x21fbf99ce4e51d14U, 0x3546efe53734764U, 0x4c0add292034f17fU,
  0xbf08d37411d31dc6U, 0x2a1181121b4095ddU, 0xb005bf45f811f2bdU, 0xf7c80734237107dcU,
  0x1a7fdfb8851cc51eU, 0xcb0519e213f02201U, 0x10fefc10f307fe42U, 0x2203d907000bfff5U,
  0xf87f0210e8f5062eU, 0x19080d0306f9b70cU, 0x62047fe9e7ec8402U, 0xff14f8201803fed3U,
  0xf8fe030b0b070ae7U, 0x7ff3f205f3e8513fU, 0xfc010108f1fc1106U, 0xefdfc22fcf09f0dU,
  0x7f0eba22f8165ce1U, 0x16c90800f2ff00d1U, 0x140a0815da03fa23U, 0x810416040014b6faU,
  0xeff1f3fe00f804f5U, 0x7f6cfc2fee9f031fU, 0x3169002445671cfdU, 0xf1d8d7e72bd72a7cU,
  0x24f9ef091701e381U, 0xa30a3014f5433ae9U, 0xfa772401ea2406b5U, 0x2bda0c2e1f2e28cdU,
  0x7d1fdffebe7ef7fU, 0xe51f1ad1ed1215ecU, 0xf7fde406f5b0fdfbU, 0xf3b908457fee18f0U,
  0xe60bfa00e714e8d2U, 0x7c0e626f1492eccU, 0xeadc2c04f103e6f6U, 0x130e1001de5f47fU,
  0x90d81eb0afff206U, 0xf60bf5ab17fbfff5U, 0xed0607f7031203e4U, 0x52d7eeba265208f2U,
  0xf34cffdcabd50f0bU, 0x5c1781fb15f85811U, 0x5f00013f9ee2dd8U, 0x7f08f01e0df94228U,
  0xf7241511f1da2407U, 0xef641bd1c43d69dbU, 0x81e71bd80dd09ce0U, 0xd348dccb70e6e615U,
  0xd9dfd20fd1e9c7bfU, 0x7f18d60cf7fa6b16U, 0xf3281a15d2ac3603U, 0xd531a6ef050b2a01U,
  0xd42ef87fed052907U, 0x2030883a3061704U, 0xfe0ac0dffcce81d5U, 0xf02e01c8f90c24ecU,
  0xe0f91906c40917efU, 0xc5fd08471dc5eef4U, 0x4801def10cde05e0U, 0x22f01029e45c7ff5U,
  0xb9d81c7f0be7f720U, 0xed265a932bed57dcU, 0xf60501851c06f8bfU, 0xc2e9c77203961cebU,
  0xff82edfd7ff00a04U, 0x8401f2eec910d4ccU, 0x15e207fb101b0c02U, 0xec28fee0d7ed0906U,
  0xe1058104e8ff14d7U, 0x13ff04e9f30327c0U, 0x41af21ee3c80eU, 0xd51fe9d60df1137fU,
  0xf53281c4febaa033U, 0xc6511ba42e002809U, 0xd8f42f21df120fb8U, 0x13221cccf81fe90cU,
  0x12e01c1bea140011U, 0x26f47fff1f033343U, 0xc9e9dc4808471105U, 0x452b04b4b158ccf3U,
  0x94e07fe910fae451U, 0x29a1f481ff2e1ad1U, 0xbcc4000da7bfd70U, 0x6b3504d3e8e4fc2aU,
  0x21b1bbf10edc320U, 0x8109e4be06f991efU, 0xf016f9cbe825f4e9U, 0xe3741dc2be394ddfU,
  0x810412e00ad0b5b8U, 0xc745fbe36d07fbc4U, 0xfa9a4b00f7901420U, 0xabe60896d5df7f02U,
  0xf519199d7505f224U, 0x349ce85718f6f641U, 0x1bf4e619d7063108U, 0x2be4463f95140a81U,
  0xf4b51466232e22daU, 0xf7fc2ddc7e5db10U, 0xba089df0ddf0efceU, 0xdf11ee02ddd4ffdU,
  0x560f0aef15fde48dU, 0x6e2ecdcf47fc60cU, 0xec1705d20e08e3b7U, 0x7f07d6f514ed4a15U,
  0xd910fbcd140710e9U, 0xd509d620020ef81dU, 0xf0254b0507e3230aU, 0x19020481fa07e906U,
  0xf8652dd5fbbe1ce7U, 0xfd03f584a80bcb09U, 0x2314f9e181f7eec7U, 0xebe393f71ad11ceaU,
  0x4c03f17fa22fc744U, 0x2100e6efca2b0212U, 0xe6f9fee210e981f4U, 0xfa03d0dff0ffd9eeU,
  0x19cdf3d4ea1ee8fcU, 0xe90cf015eeefe932U, 0xde23651704d14305U, 0xd160e81f501050dU,
  0xfbbde0f6f587d92cU, 0x30ee7f3492e3c316U, 0xf134f0c16308fef0U, 0x6f98106fc0403ffU,
  0x30100b50c0002fcU, 0xfd0206fe090301f8U, 0x3981f03035f5edf5U, 0x46f00512e82f2038U,
  0x43f114069812fa25U, 0x83a1009af43134b2U, 0x26f706fdfb8109feU, 0xdd61491dc6f510b1U,
  0xa1d50ef065a20caU, 0xd70489b57f3026e4U, 0xce30c2abcfafa06U, 0x3b45efbf0eeae7fbU,
  0xba52eee633bbfdc5U, 0x811056f3fe10408eU, 0x113e1a09fe0d7f0bU, 0x31080d03080b3617U,
  0xf222060d38090bb3U, 0x140017d90919e528U, 0xefd53cf4df412609U, 0x81dddb13d40e3714U,
  0xffffffff000004e5U, 0x1edfffffff5cU, 0xffffff160000010eU, 0x7d900001f58U,
  0xfffffe90000011c1U, 0x55d00000a17U, 0x110afffffe37U, 0x278efffff6a6U,
  0xffffff9100002bf6U, 0xfffffb96fffffd4cU, 0xfffffe1400000129U, 0xfffff646fffffecdU,
  0x3b070000106fU, 0x1feefffffbfeU, 0x131ffffff71U, 0xfffffe5500000c72U,
  0x8cfffff878U, 0x486fffffc42U, 0x7930000161cU, 0x1de8fffff8c8U,
  0xfffff976000000beU, 0x21e00001b8aU, 0xfffffd00fffffffaU, 0xfffff749000024f4U,
  0xffffff8800003d42U, 0x2fd4fffffcf4U, 0x18dfffff582U, 0x33d900000c73U,
  0x3b000000f7aU, 0x11e8b000001f9U, 0xfffffad3000004a2U, 0x63b00001a45U,
  0x337fffff995U, 0xfffffe9c000013b6U, 0x51300005a5fU, 0x527ffffffd4U,
  0xffffff1600002443U, 0x532fffffec7U, 0x14f500001446U, 0x5ff0000037aU,
  0xfffff25c0000009cU, 0x180900000f80U, 0xfffffc0e00001b6bU, 0x186a000015f6U,
  0xb4000001baU, 0x1d56fffffb9dU, 0x8ee000002b5U, 0x8e4fffffd52U,
  0xa4b74852bb4a4244U, 0x5b4bd2416d834948U, 0x4ab54c52bb3a4354U, 0xc1b4455c6da2f94aU,
  0xab6bd9e04ba4a4bU, 0x5a7fc1b052635150U, 0xade59a4babb2b756U, 0xbf59ae81a9494346U,
  0xb440c3a5446ab03bU, 0xacaea47fc6b1aabdU, 0x47a73e54e1bda3bbU, 0xc0559cb09dba514fU,
  0x81625c679b695b5cU, 0x686345577f855960U, 0x629f6367a260607fU, 0x99a3656e7f9ef65fU,
  0xdb9da14e819d6767U, 0x6ea2ac99647f6565U, 0x9bd38f658190a0a2U, 0xadce928989695f61U,
  0xa451a96d60d49a6dU, 0x9b9d94f7b2928e01U, 0xce81586360a28c9dU, 0xb16c819d8b9a6b67U,
  0xc9e91f2fd136292aU, 0x2830e12932b42132U, 0x26dc262fdc232333U, 0xcee22c2732e6f72aU,
  0xed7db49d6d52e2fU, 0x2afedad82837292dU, 0xd8e6ca29e3d8db08U, 0xe5e5c8dbbf2e292cU,
  0xd620def226d1d029U, 0xdbdac9aadccbc743U, 0xfcc02528d0d0bfcbU, 0xe731d3d2cbcf322eU,
  0x28696064aa596160U, 0x6767ba5da48169a9U, 0x5f9d63619f5658d9U, 0xa7965968c6a2b661U,
  0xbea0a6817aa7585eU, 0x66baa1a064df6965U, 0x9e6a905ea58ba2a0U, 0x9e7f98cb6f555b5bU,
  0x9861a15c617f9e4dU, 0x98a18f7baaa79d81U, 0x7f345d6ce6a79ba4U, 0x9f639f9f8fa55d67U,
  0x2e817f7f817f7f7fU, 0x7f7f7f7f91937f81U, 0x7f817f7f817f7fbbU, 0x81817f7fa881937fU,
  0x7f818161dd817f7fU, 0x7f0781817fc87f7fU, 0x817f817f9081817fU, 0x81c3814d7f7f7f7fU,
  0x817f81817fb1817fU, 0x8181819e818181faU, 0x9e3a7f7f7f818181U, 0x817f828181817f7fU,
  0x11142b3bc73f353bU, 0x343eb13da38b31bbU, 0x36d4343ccd3230d4U, 0xb0d33930d0d1c639U,
  0xe0c8d06dadcb393cU, 0x331ac6ca37e43235U, 0xcd34b633f1dfcdedU, 0xd6d5ba4f42353839U,
  0xcc31bb1a34cfc62fU, 0xd0ccbca7c5bab66fU, 0xfb153633bac5b8b3U, 0xd23ed8cccec63833U,
  0x39fb242ade262c2aU, 0x1f31df27d1b0280aU, 0x23d62428dc2328a9U, 0xd5d22521e0e36123U,
  0x32d9ddc359da2129U, 0x1fbecfdd29bc292cU, 0xddb4d828efd8d806U, 0xd54cca1501232627U,
  0xcf2ad7fd272ed51dU, 0xdad5bf2dd7d1d4b4U, 0x3b222b2df2d2cdd4U, 0xda2df1d3c5db232eU,
  0x4f023233cd373c38U, 0x293d4139c99f2f12U, 0x32cf3238cc3a388fU, 0xaecc3529cfd17f2eU,
  0xb1cbcf1617cb2d34U, 0x2b53bfd133983238U, 0xd39dca38eeddc9e8U, 0xc6e2b762fc363737U,
  0xc734c00b34d2c62fU, 0xd2c8b08fc3b7b7f8U, 0xca2e3b3433bfb9b5U, 0xcb3af1c2bbce3033U,
  0x25000b19e61a171aU, 0xe17da1bd9dd1307U, 0x11ec131beb1814ccU, 0xe1ee1712e9f04113U,
  0x12e7ee1ee1e91416U, 0xfece6ee19d4120fU, 0xedd2e0140df6ea0bU, 0xf2e0e233fe181819U,
  0xeb14edf117dfe613U, 0xf1eae6ffe3dae13eU, 0x2151a14e9e0e5e1U, 0xea1e00ebf1e91612U,
  0x46bffffff2cU, 0xb8f8ffffffb6U, 0x2a000000600U, 0x400000046U,
  0x19500000161U, 0xffffff7c00002f17U, 0xffffffc2000001a7U, 0x5b700000218U,
  0x39c000014aaU, 0x6d26000000ddU, 0x27600000533U, 0xffffffd4000058f4U,
  0xfffffc4b000021cbU, 0xffffff6e0000a6a9U, 0x3a600001dbcU, 0xed8000103efU,
  0x2af000004a3U, 0x4000072c4U, 0x7d02000028e4U, 0xffffff9f0000625aU,
  0xffffffa200000449U, 0x52100002390U, 0x68ff000068afU, 0xffffffe20000009cU,
  0x7140ffffff95U, 0x3d9c0000990cU, 0x2335ffffffabU, 0xbad8fffffeeeU,
  0x111000003d1U, 0xfffffd9b000004b1U, 0x22d1ffffffeeU, 0x29d0fffff830U,
  0xd5d400000011U, 0x93ffffffd6U, 0x1b4c000000e0U, 0x867d00000415U,
  0x231600000248U, 0x6d6d00002c82U, 0x31110000039bU, 0xcf2a0000c369U,
  0x4a260000231eU, 0xfffffac90000da15U, 0x32fffffcfa2U, 0xfffffc45000003aeU,
  0x1cc10000051fU, 0x4c5e000052d6U, 0xb1140000b365U, 0x827a00000c14U,
  0x9ff0901051115b1U, 0x81f103f401eb0dfeU, 0x6e7f608ec03f6feU, 0xfc180bfbf3f4fcceU,
  0xfffa09f80202040cU, 0x700e505f8ed1009U, 0xffe8f70f07f5ef00U, 0x27fefb03020706edU,
  0x30802fdf8021520U, 0xfffb22fcf6fdf700U, 0xfe0702ddfd9516f9U, 0xf221fdfde4e1fafeU,
  0x6fd1b054803a803U, 0xdc2ff8190e14130fU, 0xfdfff01011e8c60cU, 0x507efac0cf30c06U,
  0xfadaf407fef6fee5U, 0xd4fce9a9fe0afb08U, 0xb030c0b08f10efcU, 0x1303f9ff0dfb206bU,
  0xe033e1fe290101f8U, 0x38f407001f0b0ff1U, 0x30beffb02d70ee3U, 0xf4011503021d7f0dU,
  0xdd06ad7fd5a5e7f4U, 0xaea1b09fa29e5ffU, 0xbfcaec0f34ac0e2U, 0x25e04efb18f2f844U,
  0x7d20005f5c14a2fU, 0x230d0c1dfb1102cdU, 0xfc20f03ef9b87500U, 0xfaede2e7e5b8f5eaU,
  0x1803f4fff20a6cc5U, 0x1ecdf5fbef1e0e15U, 0x2be8ed2326150e0aU, 0x2dbc24b3ed29f015U,
  0xfacbbb5de5c902cfU, 0x7e071ff212d735fcU, 0xf8330b18f5e713ebU, 0xf032f0212c1614d2U,
  0xccfb36ee1670efdbU, 0xd7cdec071505cffaU, 0xde34c7ceea0d35d9U, 0xb0f72312102c5feaU,
  0xeb3806d0250e987fU, 0x2847acfb1018a401U, 0xf8efe017f707f1c7U, 0x12a048e0ede82c00U,
  0xfcffef10c51a22e0U, 0x15310ae4f331eae8U, 0xcd03affbe0310eeaU, 0xe6b0970dfefde663U,
  0xfc4c08f7e7f704c5U, 0xa2ffe4e11aedcc23U, 0x4feb04cbf804eefeU, 0x400c0cebe8fc6629U,
  0x7ff50303cc151b1cU, 0xae1245f438eaedefU, 0xfee0a3213d208f5U, 0x40145040b3e14fcU,
  0x716d1f741ea0e09U, 0xd202f6f707e06707U, 0xcab31000ef32f5fdU, 0xfeafd103f1d10ee2U,
  0x1304def701fd22ebU, 0x213260ff104f9e6U, 0x4fee1eadac02711U, 0xcdffed0008f9e9eaU,
  0x912f412e9de28dfU, 0xa5e3bf071a15fbf8U, 0x170708251df301fdU, 0x4fddc04098120e9U,
  0xe219ededf1120e1eU, 0xf303f11af8d0f1eaU, 0xf62646ef2fe8c9efU, 0xf623d6ded41bf6c8U,
  0x1f0eb90f0501ff00U, 0x1816c11ed8eb0fd0U, 0x68db16d1ce193b1eU, 0x181ed9f2f12ceff9U,
  0x2b4bdb1bf6fa1835U, 0xd507160de12815faU, 0xfc05db810115dd01U, 0x400f1b29d0fd0ff8U,
  0x132208102de44500U, 0x10d4c6c6ffca44f5U, 0x3dd7cfeff9c0eeffU, 0x7f9c815db7fffe3U,
  0x1607e705dddffb17U, 0x141007e6bd2cf8d9U, 0xce00da2b017d2721U, 0xcee1dcfb0a090151U,
  0x3af7c41df3ec231aU, 0xb0cddcb11e011bcU, 0xd3f0241bd046380eU, 0x81ed7d75126f8f5U,
  0xeef80aed1f0d150eU, 0x35e103ecfc0620fdU, 0x1ed8fdedfbfefffeU, 0x5f404101cecfb3cU,
  0xf91d24fefb0a05e1U, 0x23f69128021330f4U, 0x318ea1bf8ebe9fbU, 0xf3f5fffcfa00e9eaU,
  0xeafa07fae90a0a03U, 0x1402fcf4fefdfa00U, 0xfafc811ffbef09fcU, 0x3eb12230d08ef05U,
  0x1402d4ed0690fff3U, 0x7e51f2c4ef09f41bU, 0x28ee0d26d0f56e23U, 0x4d6e9ec161a1ca2U,
  0x5e7edf9f2d8c5e4U, 0x10fec8ebf2ea0bc5U, 0xe808f21df0d74204U, 0xd5fb34f224edeec6U,
  0xda81ee09eef2f006U, 0x4bf7f2f764ddfcf1U, 0xe319fe2ae78d0b42U, 0x3c4d1a1d113c08beU,
  0x30a07ef100413f8U, 0x48f5f7e7fdf934f9U, 0xfd0f00f017e825f4U, 0x1073706f7f6f5ffU,
  0xbfa1703ffff0807U, 0x5053bfbf9022be4U, 0x7ff3100afef2e60fU, 0xef40c01f004f5f3U,
  0xfcec020eed040201U, 0x380a0eefebf3faf6U, 0xe8fc2b1aecd70306U, 0x9ef0522b8fd04faU,
  0xfde80698d107e108U, 0xffe83701f920fa03U, 0x12fbc872e91608fdU, 0xe5ff411d0ee60605U,
  0xec0710f30605fc1eU, 0xf5f03006c130f91aU, 0xea36e42b0104d2f1U, 0xde01f30deae9fa59U,
  0x36e315f0070ce0f8U, 0x2781ed02fbfaf80eU, 0x2f51ec80d17f2f6U, 0xeccd22f1fa221a1bU,
  0x30806050ef1dfd7U, 0x7ff4172208f4fb06U, 0xfce4060902f2f80bU, 0xf52647f608110ae4U,
  0x9fcfff20e040c09U, 0x13090004f6f3e909U, 0xdb02df05fd180009U, 0xe90df9091206e723U,
  0x5809ee0a2a1f0327U, 0xdbf7f60ef1040708U, 0xe0cfff00ff3e1fdU, 0xeef5def4faf5000fU,
  0x1778fa09f5254607U, 0xcc3410f5f8ccebf8U, 0x25e602d0f8f31608U, 0xde080fc0c3ca0a16U,
  0x75ff0a0711f0ee13U, 0x56ed4dc6f0bc85bU, 0xd402e40b1dccab79U, 0xb209f229eef5d3ecU,
  0xc5f9eb7f04eb0510U, 0xf1ce2ff1cf90911U, 0x18080ce40fecfff0U, 0xe9db31d60f25f7f0U,
  0xf1e6e9e4190be5d6U, 0x7ff3f5f100d2a0d8U, 0x202dc9bb16f133dbU, 0x370f28abdcb9f592U,
  0xe40a18caec37520eU, 0xebd72d102430fa0aU, 0x30512f508c30fe4U, 0xebd016f7f233f31eU,
  0xaf5701e0e8db2be1U, 0xee8914e10c21bef8U, 0xd5c2ceced7bc32f3U, 0xd138bdea2d22d245U,
  0x10160b2ead113753U, 0xe7e701f70eee55fdU, 0xdd28ff36b645f10cU, 0xe0f4d1f219cfee81U,
  0x112501fc05f70ce2U, 0xec1bc9f50c0f262cU, 0x48031bdc1fe4f416U, 0xefe7fb0af80058f6U,
  0x50df618ef06e7d5U, 0x18eaf3fc0eeedb0dU, 0x1eeffccb191f27e6U, 0xfc3b96d5d726121dU,
  0xe6ebeac71b0df508U, 0xf2e6f00907f32d08U, 0x13eb27ed08141e03U, 0xda11ede60f640accU,
  0xe903acf4faedfe0dU, 0x1eee22347fe73057U, 0xfd0eed2d0e4ec6e7U, 0xf108d7eef7fcd919U,
  0xf0efeebf4eb26efU, 0x32d4d4f900e407e4U, 0x1704f20512fbe3fcU, 0x3200281cf3ee22ebU,
  0xaf60dfa0508100dU, 0x1ee0e04f6f404f1U, 0xded02f30aecf409U, 0xfcfefa010020e42aU,
  0xfb17f5810f090209U, 0xfefbffe6e0d70503U, 0xfbf6fd0c06190dfbU, 0x9d20a17ec0a0f0bU,
  0xbee01fa0cce00f9U, 0x14140b10fd110917U, 0xf10b0305f90e0210U, 0xfa1beff717133007U,
  0xd0f500f89e36badbU, 0xe81424eb061e0efcU, 0xf2de370d032f0bf8U, 0xe4e913a2de0520b4U,
  0xf5d401a2d1b2cfe0U, 0x26f51937fd7f10d4U, 0x421def3ddf1edf2U, 0xe1d2d0bb0ad9dc09U,
  0x43f3f5f2d1ed97e1U, 0xff4bc033eab61513U, 0x26dfbdda23f401faU, 0xc1e65109e6e597cdU,
  0xe5055a32a7fd0e0dU, 0xcbede20e070edc11U, 0xf517f63b05f702f8U, 0x407dfa5f13124d3U,
  0x5110af71541f043U, 0x5fdf53130fdd2e7U, 0x1cf009eff381e509U, 0xf70c12f52631dd34U,
  0x1be0010708e04c02U, 0xac9f503d50df7e6U, 0xfd17f5790107caffU, 0x1efc165c03f30ffaU,
  0xfefa032f31ea0e11U, 0x3df9f10cdff9e0feU, 0x5f4f324ed1211a2U, 0x17d8011705d408b9U,
  0xf8f64aedf9103a08U, 0xfcf7fef0da11f73aU, 0x80bf6f6cddf8ef8U, 0xeaec1f080c81f336U,
  0xfdbd3af615e514efU, 0xd96afff904f104ebU, 0x5fc11c306100905U, 0x5ffde92823fafd0aU,
  0xfaf3eb0416f10f14U, 0x36f012f9fd15f9efU, 0xe00ab480a06ce04U, 0xea0a52ec1601ed23U,
  0xec07be070c09c1fdU, 0xe4ee20f62d0f08e9U, 0xed13f81bf0a4f1edU, 0xffed0505ee001deeU,
  0xb2517eef01bedf1U, 0xec2117e101122110U, 0x2dff7fd021e2af6U, 0x804fe2213ee1581U,
  0xfe0ce7dee7f981eeU, 0xe4dd1042e8c501cdU, 0xe80723ee44de4cf6U, 0xfe2e0a06e7ddd5d8U,
  0x88ffb09f3f7fbeeU, 0x1c0ae3a9f1ff081aU, 0xf8e8f6d8e7fad70bU, 0xfeeb2bf0d71ce1cfU,
  0x16ace00534fe26ffU, 0xb31ffff2e0e4ec19U, 0x12dee1430d543501U, 0x12bfab1cded801fdU,
  0x23c70b151bc60436U, 0xe4f61814f344f8ecU, 0xb51fc5c001f30125U, 0x3c2523d21080181U,
  0xcf321a090e07e4beU, 0xbaccdeeb162e15e6U, 0x2119d5030502ccU, 0x26e80f25f3203613U,
  0x4cebf8c619210ad6U, 0xec0b24e5eb0f310bU, 0xfceee930fb0c011bU, 0xf46e0904ef0a170bU,
  0x3ed2cfb0d06fc1cU, 0xf2faebcc15300808U, 0xe01509fff4d01809U, 0xffd920fc18dd13c4U,
  0xf21404eff10413e8U, 0xefe815fce3030537U, 0xd12f5e303df17e7U, 0x4efedf517f7efebU,
  0xe151df001076526U, 0x20912f4e408f8dfU, 0xd40133ecd616e814U, 0xd8f42f81e6f11ca6U,
  0xf407d3cae7cf04eaU, 0x2ef06f30503ebedU, 0xf30505f3f402a9f6U, 0xfdd90add02a1f6b3U,
  0xeeed3fbe91bf9ffU, 0x18060b19c2f4e020U, 0xebfcf4e3fb1c1909U, 0xe4eaf1faf5ecef03U,
  0x2470c0afb07c6fcU, 0xd3dfaffee392102U, 0xf1f40b7ff8dd0eefU, 0x1afe05eafe1af314U,
  0xedf80d0c040ade7fU, 0x8e30928fd1409fbU, 0x469f09e90fddf301U, 0xff2dd11d28b9ecfeU,
  0xfb3211f4f7040bccU, 0xf9fa17d10c1356ebU, 0xf324c93306befbf9U, 0xeb0c00ece90ef0f0U,
  0x2113edf63418f644U, 0x1703fbfc150303f4U, 0xf8f82502f7fa0ef8U, 0x5194c030a33e608U,
  0xe0d0a2de8e6beU, 0xd4a9fb49f4cfbccfU, 0xbd255c2210b8e509U, 0x16b4c53dd243d1c4U,
  0x120708fb11fa35f7U, 0x240dd6d822e0dc9cU, 0xed61c8135b1fd19U, 0x6edebf3e1bbe320U,
  0xcf1711186bf4f003U, 0xd2a51ddba90f1100U, 0xe5ea38f8ebdc05fcU, 0xe9c3a2dce53cec9fU,
  0xa111b2c7fe41b23U, 0xdefbe2201016d004U, 0x6d455e50e2c07U, 0x5032eda0506131aU,
  0xe09edf703110f13U, 0xfc17c5deec0f2ef0U, 0x41814121206110dU, 0x28d90c0d0b241298U,
  0xf21efd0f27f69bf5U, 0xf0fb16e0061eddd6U, 0xfae819310327f3e1U, 0x50f014dafbfef609U,
  0x100c1bda22222df5U, 0xf12e2ed1edff4ccfU, 0xe51946f90703fad7U, 0xf86243df1076cfddU,
  0xe1b11fd000a3188U, 0xd01117bef7e401daU, 0x87f8eebfdb2dea0eU, 0xf2f6f6ebdbfc7b00U,
  0xdb0dfc0dd7334d4eU, 0x22bafef911050132U, 0xf8e22d14f81c2602U, 0x3a004139eddf81f8U,
  0x43cb36e9e8affb0dU, 0xff0fe9bc16f6c737U, 0x921dfd78ec1f135U, 0xfc029dd20853c37U,
  0xcde8dae903d0f622U, 0xedca81f919f10efcU, 0x3d130bd755a001cdU, 0xcf2ee3145cecdc2U,
  0x38f611cf33f5be37U, 0xbfe330f015e527deU, 0xc2404efcc5701438U, 0x9af1801fceed53bU,
  0xf7fd20f5ad34c6c7U, 0xf2c4d156fc1d4c11U, 0xc9d5c0065e9cfd15U, 0xfd81f20a02ef10fbU,
  0xfe20f608081ee627U, 0xaef22cae0705d91dU, 0xe501f0ff0204feffU, 0xd5e907140c2621baU,
  0xd5e8fbff77c805beU, 0x30f9c6e6a8fe0bd6U, 0xe609d5d3e1b1e3f7U, 0x2ce709060ebba215U,
  0xd800c9f640ea5207U, 0x38fb3031eff7ccd6U, 0xf733150f38d3e9e4U, 0xe45feb20cdd2ea5bU,
  0x27f98eb34dbe508U, 0xc50ce9e1f752d962U, 0xcee125aadaec18feU, 0x1c0cd522fcfb74bcU,
  0x99e6110627353b4fU, 0x33100f34e8e13751U, 0x1ba1e6300a9cc41U, 0x1c12bb40090a3e4bU,
  0xfd05a8f5dfdbea3aU, 0x1539dd32101b241dU, 0x1523a0f065c2e1cbU, 0x17342132e73322fdU,
  0x43411f020dd2159U, 0xa9fedcc6e8dfe2ccU, 0x4de31e36cf320e04U, 0x1133e2232f8f3a02U,
  0x5f22230324f2f528U, 0x3706e8230cec08e3U, 0xfb29ac4af3f6aafbU, 0xaa7f11031202c9dbU,
  0xeef7e3cc185c2015U, 0xe3f80314ed10f503U, 0xfd10f2c70c0d302aU, 0xa32fcabf9ba0d03U,
  0xf82f0bf71311201fU, 0xe8f90c0507ffe5ebU, 0xe7f605f02912e9f6U, 0x4112510160c1e4bU,
  0x590eff7020dc90cU, 0xf8c80a15e7e10705U, 0xff6fe0a12fee02cU, 0x7ffa229313d334f8U,
  0xefeb1438eb0ee5fcU, 0xf4d801fef4e80ff4U, 0xfef9070104f12bf2U, 0x5041ea9fd1204eaU,
  0xee44ae46211454fdU, 0x1fe7e413130a1be5U, 0xe7010d15f71105ebU, 0x21cf821f8c3021dU,
  0x1cca47ee0512deecU, 0xb27f9e0ce00e6f7U, 0xe704d5e5f0f7e434U, 0xdb09e119fb107f0bU,
  0xf0322d1b226707eaU, 0xd529f5c320190afaU, 0xee22e3de29edfde8U, 0xf5f90f6118e40281U,
  0x32e7a0b7fdc042dcU, 0xc61fff1339cfa3c1U, 0xf10ccce00ddddb3aU, 0xf2e5b6e719d9e3edU,
  0xe41df732b3f39762U, 0xb7ea0401f0c41cd5U, 0xecdfa7b2eb14eb22U, 0x7e0073f03ee6651U,
  0xfeb421641831ffdbU, 0x4e04452ffec7de02U, 0xeb39283be83511f3U, 0x230b23ec36c7f4c0U,
  0xb30ecb3020811308U, 0xe5c32e3996da02e7U, 0xe72307d5d4c943b0U, 0xcf31a41adee0fa16U,
  0xbaf1e7ac221d0ee7U, 0x1e08e01328b94339U, 0x3917e65b37c00546U, 0xd5e513a6e3d8db17U,
  0xd512b5f74a9f3b22U, 0xcab6fd22111202f2U, 0xf2eaf11903f342f1U, 0x9ee0e8420c6e7e8U,
  0x196033ef09e6b8fbU, 0xf012ff09c7e6eeeaU, 0xd40cd2e1e9f02f19U, 0xe3effb02eee5063dU,
  0xfaf0f3122e01d72cU, 0xf327f9f1b4dad9f6U, 0xea1cdd0320faf5U, 0x81d83d1f090a1c05U,
  0x1f805ebd10a0ffaU, 0x420106f7010b04f8U, 0x2f5fb0207f9f1f9U, 0xcfafcb10018f323U,
  0xfa08160407f815f5U, 0xf8fa16f2f4080df1U, 0xf101fe020010f4fbU, 0x1fbf609f5ea0698U,
  0xfe0cfbfbff090900U, 0xf6e402f7f5fc0a05U, 0x3f7100305080cf9U, 0xfe0fec0209fc7ffeU,
  0xffffef240000ae0aU, 0xffff63e6fffffff0U, 0x1019fffff8af7U, 0xffff2103ffffb664U,
  0x6bb9ffffff9fU, 0x1e6bffff4d33U, 0x9043ffffee1dU, 0x6dbb00009244U,
  0xffffc90cffff752eU, 0xffffcc410000f5f0U, 0xffffdf51ffffe8a5U, 0xffffc62000009820U,
  0x6f8c00004ae0U, 0x17589ffff9d71U, 0xffff1383ffffe6f6U, 0x1020d0001597dU,
  0xffff64f4ffff6d52U, 0xfffffe4a00002639U, 0x74010001637aU, 0xdf00005566U,
  0xb80bf565fef739d6U, 0x7f17fb54f24ed4e6U, 0xddc6fe15d6e70e24U, 0x4806d42419ebcdbdU,
  0xe8abfc74630bd40bU, 0xf49be85312ef96f6U, 0x11136fdfa326315U, 0x277f96f12421e0dfU,
  0xf2d60a18f4ee9b03U, 0xe46c10da030224efU, 0xb2c0ee06fe99c6eeU, 0xe4e7e7d112ff1f09U,
  0xcd13521b022fff42U, 0x2fafb0515f34016U, 0xb70981cd59d92a10U, 0xdd1ce0e462911f0aU,
  0xedb526e9f41334f5U, 0x29337fe22bfff717U, 0xfbd7aacec9cd15deU, 0x165bb19b83edd9f4U,
  0xf8f5f3c2da27c981U, 0x1b1aece9eec12e02U, 0x27d2ef16fb536626U, 0x350f1340feef170fU,
  0x1526f21beae0f9e0U, 0xe92308feb5cf01f1U, 0xe806bdda7ff52153U, 0xfa17dfeed8f4fcddU,
  0xfef5092fefd833e6U, 0x36ffe803eb082bffU, 0xebf312fdfd1007f3U, 0x14f91281f6e10efcU,
  0x99fff5f0ebed02e4U, 0x2de6fdee03f6f6f7U, 0x1102f40ffdeefa29U, 0xd1eb0f28172a060aU,
  0x3d20250727f708fcU, 0x6fa0fb0dff7df40U, 0xff30f2b84604eae8U, 0xdf381dbdd4f131fU,
  0x28ce2eb41e31f32bU, 0x191da125fa040502U, 0x211384f4e48105adU, 0xc2d9c9e92103b613U,
  0x31a92353cffafe13U, 0xf81eccafdd1fd77fU, 0x383b0fa4c9c2248bU, 0xe4fb1630463ddb19U,
  0x641d6800cede57e3U, 0x10280cb3f72949b1U, 0xe7e70327da0af0edU, 0xfe381c231c01f40bU,
  0x3434dad429d1cb7fU, 0x172728f1e40408dfU, 0xec13d61cd9dce134U, 0xb514cb30e3f1f1f6U,
  0x32ead7f8ecfc03f3U, 0xbe1be9f6c981622fU, 0x3fa05e3dee352fcU, 0xeb394b2bf114129fU,
  0x769ce2b7fae73bf9U, 0x2ab51aa91ab8311fU, 0x81bfccf125c7e3c8U, 0x4963bec333fb081aU,
  0xfb08dd07ebd99cedU, 0xfb080d1006f81816U, 0x24fe08135adb190bU, 0xe3fa2cd6e710d412U,
  0xefecfed833ecf66dU, 0x41fc07b6815b3303U, 0xc99de04a7bd04eeU, 0xf3242016c619be41U,
  0xf820aad47d00fd50U, 0x19273945e82a0fe2U, 0xa81541ef63fd6f4U, 0xee0ad3beec21c77fU,
  0xfce811cffbcb1fd7U, 0xdff02f6152aebfeU, 0x1aea0e00d2161d0aU, 0x11f5ebf7f7fb1bdfU,
  0x4ff140406810dU, 0xf8fb0dfe0e08f11aU, 0x9dbfe08f014ebfbU, 0x170f0a08130f0ce5U,
  0x95f404f8d5e10ff8U, 0xd9b504b313810700U, 0xeae2cb25011d45f1U, 0xeb4d7121b7caf72fU,
  0xcb018fe619d5f2e6U, 0xd89fd74ad4bcfd2eU, 0xfb7ffc311421f8faU, 0x33fb1f0f23eb07eaU,
  0xfdcc1424e133f7f8U, 0x391215e8fbf9f0fdU, 0xf51be6fe1506e0e1U, 0xe0d4e281d8231629U,
  0x4dcf5d7f8a3deddU, 0x2ec1f1932f719e6U, 0xf62601a9ead605bdU, 0xc8f4eeda254a12f9U,
  0xf9ffec03d9100e2eU, 0xd5f78127c0f62111U, 0xccff180df1ffe4f7U, 0xe8200afb06060eU,
  0xe63ec330ce28ff14U, 0x11f3e4faf5fc26fcU, 0x1f4e41eca12cc04U, 0x1effc44a47080ecdU,
  0x16030612910df6cbU, 0xe60b15313681c32dU, 0xf9e70fec0604071aU, 0xe6faffe1050a07fbU,
  0x16fbfce9da1fec19U, 0xc1e1e22b0becfa3cU, 0x227f0bfb07ad37fdU, 0xe7360febf340fd06U,
  0xde7346dff3ed0d02U, 0x56f5c519efb7e97fU, 0x3b4e2defd2e8db05U, 0xf647a7e3cec2da03U,
  0xf606f99fb60f1b74U, 0xdfd17b9e3d811dc1U, 0x47ead915520604f6U, 0xdf84fbffed342905U,
  0xba30d438fd2c19e0U, 0xfbee13d6cfe6ec9cU, 0x1116fe7ff5042300U, 0x5efe3f3dbe419fbU,
  0xe5dfcf0fe4f22522U, 0x44c2f4e0fdf1251fU, 0xa1a01dde4d013deU, 0xed029cde78122e10U,
  0xddeddde52411d8c4U, 0xe25263505002481U, 0x2e29fe36e9fc13eaU, 0xe23f25119c11d4c3U,
  0x240b423bf52ded04U, 0x113311eb2b12e70bU, 0x3810622c7f60af9U, 0xff15eb33d21339ebU,
  0xff8dcf1dd7cd04eeU, 0xf5113bfae214bf47U, 0x723cbbf7f2fe162U, 0xff125f4c11115c00U,
  0x13bc1b1b0639ee0aU, 0x2181060e0fd201f5U, 0xdb2a05dcd505be30U, 0xe22cc4a870dcff32U,
  0xd8ed1255ff18450bU, 0xfed45605f7fa0e21U, 0x16810b0a0ae30eedU, 0xdf050ae0e30cde24U,
  0x53adeba41e1022eU, 0xd6f4073b08ff27f7U, 0xdef93008fb061523U, 0xf0e218ac22e1f982U,
  0x74fc7fdff6e24b14U, 0xf9d9e21814a71a0dU, 0x261beb0b2a1e27e5U, 0xf0405f3c03dfd8b4U,
  0x11bd20f810eb7f9bU, 0x8ff4c0ffb320a067U, 0xacf0210eadeb08f1U, 0xe83f2b262987af02U,
  0xc24f0ce5f020ba31U, 0x8051cd61874fbd8U, 0xbf19d1fd813cf8ccU, 0x37d98ec0f8141788U,
  0xf9fb14ccff29e9a1U, 0xa19d636431dffdfU, 0xf9f817e81df04c01U, 0x30f2d82b020aff03U,
  0xfafc120113cb2a01U, 0xc5efb2ffefd1f904U, 0x7f28dd285e28ef31U, 0xe71ef8b00612117fU,
  0x5dd0de96fda4e3a1U, 0x17ebfe2f2342bf22U, 0x20f64d1d1508171cU, 0xb62cd623eb48cdebU,
  0xd7e20ee3db02d8cfU, 0x9af9e5f5e454d381U, 0xfbec14150e1bfbfbU, 0x6d4f0ccd1360ccdU,
  0x130dec230bdfdc12U, 0x417aaa761628edf4U, 0x9882eb8114edec21U, 0x1805d140f415cbd5U,
  0x59175a2d32e51449U, 0xad31d539c130a59bU, 0xfd1a04cf00161bccU, 0x50fa2cd9026538eeU,
  0x3be338077f1fe1ecU, 0x1e116046006bf08U, 0xe0d5000aeecf150dU, 0x227febf919291044U,
  0xf705b9ef4dd105c0U, 0xd5ac4a61afd90742U, 0x1412d11506fdd716U, 0xf4eae4510e0de3d5U,
  0xfcc619a3fec853ebU, 0x6b2edd7fbc0c0909U, 0xdc2609dd1fcf25f8U, 0xbcf1affb01eff912U,
  0x7bffe5f63828e928U, 0x12b9120c092d7fc1U, 0x9ac0ad24e525c447U, 0xf1df1303f10812e9U,
  0xee2e03ee04acdee3U, 0xbc2be3ce051ce02aU, 0xf60602c4f8c12bbfU, 0x7f297496f25ff9f8U,
  0x4404b7169a0befedU, 0x2ff6e3fdc6e07dfdU, 0xc50a42da072a110eU, 0x29f52cecef0c8115U,
  0xf3b0b4db6c0aee09U, 0x15e8eceff4c82707U, 0xcad888d53707ef06U, 0xb3c8f05400d6e637U,
  0x2fdad6cb16d8fe9aU, 0xba0bebe0ff8124f0U, 0x2cbbef1a0000f1feU, 0x1747ed0813effd10U,
  0x2ff509e205eef7edU, 0x813192737fd0c0aU, 0xce087f215b21d500U, 0xfc2c09f206fb3ffbU,
  0xcd15d6e301f4fad7U, 0x16e141db2fe7efeaU, 0xf6fc15e72ef84e09U, 0x24f20a1af80808fbU,
  0x7f6120712ce3905U, 0xbeecb0fe01daf7f7U, 0x7821e2097f1dee2bU, 0x12f205fa00fdf7fbU,
  0x12f4fc0af409f7f7U, 0x1e070103e10bd5edU, 0xf4e4eeed0cfae4f9U, 0xd0f8140181e201f2U,
  0x229f260433c781f8U, 0x2ad5a2022bea0e02U, 0x2c0fd3fcb999eebcU, 0xd9cabdd850fdcc0bU,
  0xaf88e4508c90433fU, 0x10f3ecee03ea1c11U, 0x2f32806e9fd0903U, 0x391f0a21f7efe4ffU,
  0xdcecef0bf7f3e7U, 0x2e011c0f81fc04e9U, 0xd6e419ff0d0aa0d6U, 0xccb3e6f8e4aacf28U,
  0xdc2beeeac7ecf9c8U, 0x2237f4041217bb24U, 0x7fe0c61500d3d11eU, 0x24ee09dfe7047ff3U,
  0xcd1ae0d2f90fe5f8U, 0xfed021fffe6082dU, 0xddc60f230ccff3f5U, 0x813f25f8fc3bfd0eU,
  0xdaf41016fb0381U, 0x1b16097f0d530a33U, 0xbc081b05f1db1f1bU, 0xe901ddf50ceee802U,
  0x2ee30ebfff7eb1aU, 0xf804dd4dd82d66fbU, 0x69e99b7a0ebe1839U, 0x8129e34c3f09d400U,
  0xf9c9fae0cdc3f979U, 0x322d0de482081729U, 0xcb1afc337f04fe07U, 0xa1836f719f9e92dU,
  0x5e0dffff9e6fddeU, 0x220c08d6ead6dae0U, 0x9de82f4014fdfae1U, 0xc00c31e36ee41707U,
  0xe319acc8e801c411U, 0xe1f5f80ef224cb35U, 0xe75a00f304e6d501U, 0xf6f67fc6d921d22cU,
  0xe2ce7545fbeb9b47U, 0x810d0d1af387f0fdU, 0xcd0a44f5fceaf419U, 0x70da0316910edf05U,
  0x5ffb1ee500f612eeU, 0x8ab18e6e3f31328U, 0xcc3d4ae1f8f9d612U, 0xe0ff495fe2e071aU,
  0xb013f70d04f60e0bU, 0xf7691becf78159dcU, 0xfcf5f0fb06fe002dU, 0x1927137f0003ff1dU,
  0xe9041b0ff914c8d8U, 0xea0c05ffff35f308U, 0xf108f81b0124db21U, 0x7f3f9f70ef07ffcU,
  0xbfe0b16ef032ad9U, 0xe149171104100214U, 0xeb13f0e0e101ff09U, 0x59f3fe1c1805f103U,
  0xd604f71afeff247fU, 0xf215d930d429fce8U, 0xe4f7e8ecf701fa13U, 0xbdaf6001faf00cdU,
  0xe2ee0a0c0e03ff13U, 0xe9aaf4310ff4ef36U, 0xf531ee81ee16a723U, 0xc0eee27f1026d91bU,
  0xe61942fa431434eaU, 0x51fce0c928f95ee6U, 0x1b0cfcfd07f306e4U, 0xfce201f504faf8f9U,
  0xf5fafbfbe081efU, 0xfd02fdf3fa01fcffU, 0x8fc07e31d070803U, 0x83d0d3cf82639aeU,
  0x81d80ede1835d636U, 0x8e51217dde816f4U, 0xfef2e80022d70210U, 0xdc06f7ebdf09cce9U,
  0x3c1af1f51b215c28U, 0x29d7cbf8dffb1ad9U, 0x2bf40f0303091f26U, 0x31fe4c3dcf4c221U,
  0x7f0c1c48226aca64U, 0x30e002cdeaf37212U, 0xde02ec0a1703fd01U, 0x24ebf21e14ef0818U,
  0xbbcd06f10a0709fcU, 0x812801060527feeaU, 0x3ecd6dbe4fbefd0U, 0xf6ea15f3f8d9090bU,
  0xf060af1eba98103U, 0xdf50408f9fd16feU, 0x3061ffc3dede0e6U, 0x1a07183218136881U,
  0x97dfec1c274bc146U, 0xc2f41514e1de1a02U, 0xd804d1e316dfbae6U, 0xbd0606ecf61dd320U,
  0x61c2038f6e8227fU, 0xf604f026ed61e3fbU, 0xed0ffbe703f9c800U, 0xeb05f5eafff0f7e3U,
  0xdde10be01a181b0cU, 0xe0be8e71a051981U, 0x22eff0f136d7acf4U, 0xde040ef006dffb08U,
  0xde1dfb01e61db01aU, 0xea1a0009f1180119U, 0xfbf209813d22a637U, 0x2ad81453fa23de4cU,
  0x416ec0326fc1aU, 0xbb0b22f1e1c811d0U, 0xf917faf42ff8cb08U, 0xd74e015e1347ff37U,
  0xb01f000a202919e4U, 0xf70f49f77f331e1bU, 0xea04191c4314ac0dU, 0xe6e7fd0101d30e10U,
  0xba0a11f0b133dd18U, 0xceeec49bd58151d0U, 0x34ec241a4233aff5U, 0x3bdf6a5c00240a20U,
  0xec27bf12effafedfU, 0xcf060109e6ef0605U, 0x2e1220eb1435d702U, 0x420c80d92f8f0caU,
  0xd25cb06b9127f11U, 0xdb180d00fd3deb15U, 0x96028530cebb27fU, 0x1e262f69f5ebbfddU,
  0xbc7624fc04efb6f6U, 0xd017ef06f44adfd7U, 0xf1ed35eb101f1f08U, 0x118542c823b80341U,
  0xeff20ff2f911f001U, 0x6a3ee1cbffe9ed2cU, 0x81f6ba1526d80c09U, 0x5203f5210a3441dU,
  0x463d1ff1fb7f0301U, 0xe627baf8e5060f07U, 0x7ea98de06eb1391U, 0xfdf724daf20de834U,
  0x25012cdcf11b1506U, 0xa0e1108c9eaf214U, 0xea19ecef53f514eeU, 0xd218141cf8c1fd08U,
  0xf0e409fd13ea097fU, 0x17ee36b5b208fc0bU, 0x3aec07d81f59d229U, 0x2f2dd02007ffcb15U,
  0x1ce281060ca705b4U, 0xd7fdeef02b0dd4fcU, 0x19bf4121d81deef0U, 0xf31201159b07b438U,
  0x1b0181040ba34af8U, 0xc10b2428a02ab4f1U, 0x10f64bfe28020e5bU, 0xbc18cfefb8ff3301U,
  0xca0ff6e608e64723U, 0x17fd1504fdfc11daU, 0x1d001ff21100121fU, 0xf1e1db29e5e90717U,
  0x7f47ea0a1dffd9ecU, 0x132cfbeb120e1b02U, 0xce24f1dbefeb14f7U, 0x21dd28123061dfaU,
  0xa052012c910ff28U, 0xfcf20fe12605cff5U, 0xf8160df701cd0103U, 0xe405c8d76b170df5U,
  0xbf1eff7102017d6U, 0xfb1d14250b030381U, 0x3309140be6f01cebU, 0xe5fd45cf6402deaU,
  0xd41525e6e27f0228U, 0xfff9094016250428U, 0x402134e419ca3e13U, 0xe37327e3052b13c7U,
  0xd727f5b1d5ded4faU, 0x43f47181f1f8f0d5U, 0xedf407f6fbc039e7U, 0x8254fb5f219ffd6U,
  0xd31a43eb05e606a2U, 0x4e1e6110527fa00U, 0x4e45b1a90f1e800U, 0x10002111f90f0f2dU,
  0xfbe5e4dcf4fef97fU, 0xe2f2eece0312f606U, 0xd81a07dbc8fade56U, 0xb6f70d81ffce11e1U,
  0x3ef3ec07030bfff7U, 0x2cc2036f21a0603U, 0xf906f10df2010dfaU, 0x1bcaea0c331ed67fU,
  0x30f2cf56ffd502edU, 0xb90c00f3053727f2U, 0xa03e106250612U, 0xf0ccf33c8fcff20U,
  0x31b0b16d4e8d1e6U, 0xf02d21f3e4de071bU, 0xe9cf2f123b0010ffU, 0xfa2d361eaa7f2d18U,
  0x1c110aca1b2e4905U, 0xd30d32b5f3e5e981U, 0x3f2f4e2e01d956efU, 0x40de10eb31052fffU,
  0xe4c6d4e30f15ec0cU, 0x51bb41d907b237fcU, 0xbffa1515b8f6df08U, 0xc5dfdb81e08d09d2U,
  0x71caf22e3e1410ceU, 0x1cf3eedb3bac541eU, 0x72ed2d9e71bf3e2U, 0x38104efcdce1b0fU,
  0xf60f0ffee1efbb1dU, 0x1202ea810b2cdce9U, 0xbe00eaf516f2192aU, 0xfc550b03169e40f8U,
  0xed4ed61ceb4a0c06U, 0x81cea4fadff21cf8U, 0xec054bf171100642U, 0xcea64bed50ed8113U,
  0x1d0fd306f2cc18e5U, 0xe5fc270e05431916U, 0x1b001ee81c272af7U, 0x2f666057f0aecf1U,
  0xf00e10ef5d28ac0aU, 0xe4f10ffbfbd2ec05U, 0xcf07d924e916f7fcU, 0x23e9d501e0f61cf2U,
  0xcd0435f032810e25U, 0x4ea1fd719f2ecf6U, 0xf5223c2008e501abU, 0xd3cb0ae558c72e19U,
  0xe9701c02e6f6901fU, 0x1dfefb836ffe6adU, 0xd8ccff00eee91813U, 0x2d54c481b6bc26a7U,
  0x10406e617fc4101U, 0x24f107190007fff8U, 0x2f2180b14c32a16U, 0xcff0b807fddff6faU,
  0x7f25ea0c5b21e930U, 0xfbe7d73622fcabfbU, 0x2a10cc0d0dfafddcU, 0x28d609f1ed1d0fbcU,
  0x42201c230f0ae9c0U, 0x81f7d6c913e50206U, 0x2d1cf7021ec4061eU, 0x211003ee071ecc04U,
  0xd52bc5fc81d4110dU, 0xf017ee00be105600U, 0xf10134ed11321307U, 0x2414ffeb3045391cU,
  0xf70af9fee005e707U, 0x30eea40114e0fa9dU, 0xefd901ccf301e311U, 0x5c170ed5810d0edbU,
  0x1f190c2af31f48ceU, 0xcf0854322529d514U, 0xf10816191ef0e205U, 0xf3f3fe40fc031301U,
  0x81430454f623e4dcU, 0xfb13d21eeae01b12U, 0x33f581100b3600deU, 0xd300e200e0def10dU,
  0xe5f6f80bece11d31U, 0xfb1cd61dda29041fU, 0xea5e0926fa240c7fU, 0xf9196884025cfefdU,
  0x4ef43302504d0e0cU, 0xd6161b386512af15U, 0xeecc13c7fbd81033U, 0xb311d211b1b0d81U,
  0xce08f535fc2e1f18U, 0xe1010e20d7f010daU, 0xe801e8e50aebe406U, 0x51bfedef7f90616U,
  0x23122f5a0020f9fbU, 0x7f9cf2e34ac69598U, 0x4967ee292af01252U, 0xf40fd431feebebc7U,
  0xdce914e9f22824adU, 0xfee9f51ec10ff1c3U, 0xb008f2d3dfd4010dU, 0xfbe8be15a640e7e8U,
  0x340c152ba5177f02U, 0x23ccfd004311201U, 0x1afdda0d61f5f41fU, 0xd01281c018c3deedU,
  0x2df4f501f723126aU, 0x726f7f8fdeae2edU, 0x2fef54ba0cf5f7f1U, 0xbb26f2491f32f2d8U,
  0xc841cacc11fefb0eU, 0xfc181d01eb3efb34U, 0xfe810dd4e111fbd9U, 0xefc2c0c09192021U,
  0xe80c05d1ba1b431eU, 0x21d827d7e3ada40fU, 0xc1a6411bc77ff227U, 0xb521ddf34fb3d01U,
  0x392e090c3db85016U, 0x40f7f117a5240917U, 0x2a9302f9f60415f8U, 0xe61c3833d249d960U,
  0xfa50f1ba26f8facdU, 0x147f3bdc091f5dU, 0x3a81680dcc15037eU, 0x9bb3dcc2dec01337U,
  0x9fdefe0bc6001813U, 0x64250905001ae9d4U, 0x2b0fe7a739dac70cU, 0x1887de4f11d0b9dbU,
  0x272a18faf43b3efcU, 0xda41af080b1aea1aU, 0xc1bfeeff0e28101U, 0xfa5e39ee101f1efcU,
  0x1216a3ef3428c700U, 0xfe213d091c8129c3U, 0xe9e0071547150d06U, 0xfa320a0ce01530ecU,
  0x1bf732e6080ed2fbU, 0x303e27064ffb61d9U, 0x4336d3470bcc91f0U, 0xb39833aed8fc16e9U,
  0xf280de3251e4ff0U, 0xe781ebe42ab0041bU, 0xccc0cf101e00df1U, 0x3710da7fe222e317U,
  0xd50204e5f3f1f9f2U, 0xd809efd815f7f7f3U, 0xe9e40ceffdf7fb1eU, 0x13e30134000a1138U,
  0xbada1f7f121a3f0eU, 0xd3bfeae8e1fa1505U, 0x5fe7e8f1090df8f9U, 0xff3e3fd22f0e90bU,
  0xfb24e51f090aab37U, 0x7f1d0a09f3c147b3U, 0xb0bfce62335051eU, 0x22f8110ddc4c31eeU,
  0x57d009f040e63500U, 0xc6e3efa4ec24e23aU, 0xb7dac681c9e4000fU, 0xda0cffe61819e0d4U,
  0x6f15c32d2e92b2fU, 0x1c36bc23e720232dU, 0xd4f10a123e1a7fe5U, 0xd2d45803170c4fcbU,
  0xfd29d8f4f10fdddfU, 0xbf1219f7a1e0f4eeU, 0xf2a50c43e3cc12bfU, 0x201209b627d21da5U,
  0xdb003e0fade190bU, 0x25e88122c31511fcU, 0x3a62e0dacddf6ae7U, 0xf03704c6ebff05a7U,
  0xf19f921fce1da25U, 0xbe57e781e0c7feebU, 0xf207fb030e0a0e02U, 0x213cd121b05f4ebU,
  0x29ee20e4f5fcf50fU, 0xeeedfdd7feb0811cU, 0x18d2ee1424fb1509U, 0x16f95d23d1c5f810U,
  0xdbe3acd413f701cdU, 0x96a3e82bc4c6e60eU, 0xf9b0f81c19cad511U, 0xfd4a15df171d2deaU,
  0xe95fcce4ef170be1U, 0xe6fdefcfe4e68104U, 0xdf6516d25cf41aecU, 0xec391074e1e7ae64U,
  0x97ec69321b20ed0eU, 0xf93b1fe1928116faU, 0xfd1108d9d60653e0U, 0x12e160d528fd05adU,
  0x301201e13e1cdd3fU, 0x8fce008101d2ebfcU, 0x270ff8152ff9ec10U, 0x10eb0000ea081805U,
  0xfbdde552f71bdae5U, 0xff040525d1fcde50U, 0x5522ff0de9d55dedU, 0x23d50915172ce71bU,
  0x3ef70a18bc7f33ddU, 0x7ee0ac2060349e3U, 0xbf18c6aace18ca7fU, 0x22fcefccdec23ec3U,
  0x1001070d331af309U, 0x8e615eab93534faU, 0x3c0ff1fa0f1627e3U, 0xedcb1bebf4cde6dfU,
  0xe9275bf433010d2bU, 0x17f03381d4f7f021U, 0xf0f50cee69f81f3bU, 0x20bfeecbe97a31b6U,
  0x7fe701cc640eec07U, 0x612be1081bcc070cU, 0xb7013e027972340cU, 0xe6280fdb49328b05U,
  0x2ce0bc3dd1e4dd3dU, 0x40cb5f1d47352edfU, 0xfad107f0caf425f1U, 0xfc0e1c283ffb00d6U,
  0xe21e2ae725d77fadU, 0xc0f53096df462257U, 0x30e7ce81f5f9ff5eU, 0xb2d3929fcd04f102U,
  0xd314d7e6270ef52fU, 0xdedfe212fff7002aU, 0x1ac605ebf8f81aU, 0xeaec03d7e0f078d7U,
  0x81fe0fdefd21c93dU, 0xdad32717cabe31d9U, 0xd60a0ffc12b5bdefU, 0x96390afb003bbf22U,
  0xf1f4f4b0fd00c17fU, 0x55dffbf00fc93dccU, 0x2004e6022dff0003U, 0xf3e0cbcaf62e23faU,
  0x38ccef05f4fa1bf6U, 0xeb1c0d33fc1d1b81U, 0x9ae1ea0c183cf337U, 0xff08040fe8fb19eeU,
  0x2f9df000ee2ee10U, 0xfd10f2f4edfeea01U, 0x3039d6fbd913a7f7U, 0x9bc682c1221cd0fU,
  0x24e200ee3e8f4c26U, 0x4ca8813f39e8fdb7U, 0x134a07f1f6171b09U, 0x5be7282fb8eaf51eU,
  0xfd86ad4ed8107cbU, 0xc9ecbc045afde8c7U, 0xebc4d2db2eab1fd1U, 0xd41fb529cf14f3f1U,
  0xd379c8c2e5100c3fU, 0x4b0ae6ef21a5f6d0U, 0xc8b8fd30a939f2eeU, 0x47030eb4f1008104U,
  0xf206a235120ec3daU, 0x15cfed1a152f32efU, 0x15ec011e81fff1fdU, 0x1401021d000ee10cU,
  0x3dbf1ecf0f7fe55U, 0x14f2e9eac907f607U, 0x521600d5af1f1019U, 0xf1cbf9011bff0208U,
  0x1ef929dfcb3b0b0cU, 0xef49df811fedff15U, 0xfb21544212da2a45U, 0x27e714d9f9fc18f8U,
  0x43ce2fc31d290515U, 0x6fc11e616c981c9U, 0x3206f8dd0400ff06U, 0xfaf5ffee25effcf1U,
  0xfb772726272c63f7U, 0x99b3f48f3006cdfeU, 0x45c1ea5a00f0d10fU, 0x31e42cf741812918U,
  0x862dd70bd64cd2d6U, 0x408d8dc0dfee281U, 0x1fdf07caf1a810f9U, 0xfaf7e8ee08fcb7f6U,
  0xf9fb0e05d72a0816U, 0x1a0805dc1bfe08f6U, 0x11d3fff5fcf0ea16U, 0xf23f2fe5e51128f6U,
  0x728f8afea32faf8U, 0xa412d12edcd2d40cU, 0xef7f45d215ae62f3U, 0x17fe2ec54a2838b1U,
  0xe91f1e7f1d545f3U, 0x28bffe167f100826U, 0x18450aec4cf8b5ecU, 0xf62416c9f9b402acU,
  0x1920e338f6f8b527U, 0x7f19091102c837bfU, 0x3f9e9f9321ffd1cU, 0x16ef07f4f43237f3U,
  0x30f304fc1ffb36f0U, 0xe921f10f03109d10U, 0x3b03f8f0eedc0fd8U, 0xfd08ffed08250201U,
  0x2d1b1118e2171b16U, 0x7fe7dd101be105f4U, 0xba4735f704e80c16U, 0x490924e4f07ffc26U,
  0xf22805f5fefef9e5U, 0xee2003ff1144f826U, 0xe70814f0f30cfb11U, 0x12b9dcf581cbf8f0U,
  0xbcf1f4dffb20de37U, 0x1df4ec351d124aU, 0x162932bff8170f0cU, 0xdba3d321842f31dU,
  0xe4462f9b9cc2e440U, 0x81285d9c05142414U, 0x330f162af9120ef0U, 0xeda4dce6ec10e90bU,
  0x12c1e91620111a00U, 0x3542f075730d0c38U, 0x7fe532c63ec90c92U, 0x1c26e211fb1d010dU,
  0xe18fff03a0305daU, 0xc0fe1cfa09e90008U, 0xaeff418112ff10fU, 0xfdf54df38fecf0f1U,
  0x140f1713e5f72043U, 0x3e7e6e9f305ef7fU, 0xcbdd13d30ffef610U, 0x150708110dd2de13U,
  0xdf000616772eed13U, 0x409fcc417bfc6c5U, 0xfd19edd00d0d0281U, 0x8fc4700f9ee020fU,
  0x5bdf507eef4fae1U, 0x4d02f706d71aU, 0x11e61cbff2290e18U, 0xfc0bed194b1225eaU,
  0x24b4231cf47f0cc3U, 0x1a1adef35a119518U, 0x7fe5e029e5ec2fd6U, 0xbe1ccbc90942e715U,
  0x251305edfa111eebU, 0x79b9f9e408cd1e23U, 0x1a260120caec0916U, 0xaf8ed0a62ea060bU,
  0xc62be93e48d314e2U, 0x14d20affb1e4057fU, 0xff47b3da9ee43cU, 0xbc100de9d1fd0b0cU,
  0xf719e3efe50f251fU, 0x2cde57ed55e2fe11U, 0x7f54e113c0c81f5U, 0x6ed0d190ec6f5e4U,
  0xe2174bec9deccadaU, 0xdee1d5aac916854bU, 0xf57b5af6efd141beU, 0xdd7f2110a12ebe14U,
  0x24feaf180e0b1fd5U, 0xe2fce7fd241813fcU, 0xf3f11e04a509f232U, 0x33fef7f7052808e9U,
  0x918fef5e8010081U, 0xe015e04745f3fcebU, 0xdb0819f1d4f407f4U, 0xf536bcf9790d240eU,
  0x1604cee61ecbdc2fU, 0x6492bdff8fb0b81U, 0x1633a01adfd3ff32U, 0x22defd90d10e450U,
  0xd5ed50812becf7e8U, 0x4517e60b161bf8ffU, 0x1060d08f6040bfbU, 0x15ec0fe809f71ae2U,
  0xd1cf004bf72c057fU, 0xf2d1a979c9f12c16U, 0xd4e9e1df031bfb33U, 0x2aef0403e82021efU,
  0xff2fbfef809dbU, 0xf5f10dfc1d0735f4U, 0x28e9e41a0c0a0defU, 0xe6f30e0713e51f12U,
  0xd002ce02fae3fd15U, 0x6a24cf0e7f27ef3aU, 0x3be9d1cb7f2212c9U, 0x110a33e15bbc0efeU,
  0xe8f408131ce42b1dU, 0x17d4f69ef9030b14U, 0xcf30317eaf21ebfdU, 0x2f914f22d0103U,
  0xfefd4a06cce00843U, 0x151a340a0601141eU, 0x5d300ff12e9db7fU, 0x7dcf9caecfa110aU,
  0xd2f11616f70c7f74U, 0x8ff5f7102248f337U, 0xd2910f01baee2606U, 0x2604c7fcf6de9ff0U,
  0xc4f915d30b0fc80eU, 0x2f9eed3227dcf3e1U, 0x17adff3dec11d312U, 0xde260abe493118bfU,
  0xfd9bd57f051a1350U, 0x1c178353440eef1U, 0x17ed41ece1ee540cU, 0x9cf5e4e1dffcc521U,
  0xfff60b1bdbd6ffeeU, 0xe21222211cced0fbU, 0x8133f1fde735d010U, 0xfa9ef54f32eda7dfU,
  0xf21447f7ff325311U, 0x337f90ee1117f6eaU, 0x5c70d1dfa00b506U, 0xbf722bddfafd1fe4U,
  0x21c9c8d61eee05a5U, 0xbf0300d717812900U, 0x8c3f20d0bf8ffffU, 0x1f3efc0412f0f803U,
  0x2bfb03010eefe7efU, 0xf10c29acf9bceaddU, 0xb727fc26ef3e112dU, 0xfd16fdf61b08f6dbU,
  0xfbf0f881f4eb122fU, 0x1add03fce7fa05edU, 0xd1d7de81181e1135U, 0xa3bbd6f8eb19d84bU,
  0xc9e01dd6a0ec1510U, 0xe0131b3ddbf9b1f4U, 0x38e90ba2e8f5e940U, 0x3ee1c82dfefef4d6U,
  0xddd3c83cdd81fcc2U, 0x25d9b406102b1b4aU, 0x2ede80c2b8beeb1U, 0x2feaf0d210e209d3U,
  0xe8091628ed17c2d6U, 0xd91d15c4f7fcedfaU, 0xcfe51413e3faedfdU, 0x3614532707053336U,
  0x8f0df7f37f0015f3U, 0xf14ad963030bfb35U, 0xe0fdeb07312bc5eeU, 0xd636adffaf0ff0f5U,
  0xdf5dd2bb6f07f22U, 0xe20cf90505312a15U, 0xc0d2008eb7fc8faU, 0xa37cd212cf61702U,
  0xcb0096f1f4d319c3U, 0x1fa3f220612f858U, 0xd4db150460210efaU, 0x8450df8e01ef9e5U,
  0xe51bf20d0ee93ce4U, 0x30c0f8111e23cb9U, 0x19feedfcc6050525U, 0xaef003ed40f9c70eU,
  0xf2fef2d8f106e37fU, 0x5fb08bffde11cd6U, 0x230ffefc1b0cee0cU, 0xae92b13f21427fdU,
  0x3030113020a1aefU, 0xf681e311d9cff4d6U, 0xd51b20f5d223e346U, 0xd3acac77501f943U,
  0x4fa344ff20f42f0U, 0xf7b63e10e138020aU, 0x404f8b104f9f581U, 0x4b04f5f3ffc8ebf3U,
  0x2fbe302163a2509U, 0xec022517ed13f62cU, 0x16dd10eb0a0b05U, 0xd6d1f0f90f47581eU,
  0xb522482420f50e2aU, 0x81e92c16dae8f7f9U, 0x8b705f009feebe0U, 0xb32e2f3be41ccc30U,
  0xfba5d0f617243181U, 0x7db48651e82a030bU, 0xb8f006f604dbecf7U, 0xf811e5bd19bbf3f7U,
  0xe6e3c741be04f214U, 0xee14103fe9fa087fU, 0xedf8ea34ef40effeU, 0xea0e00e3fefcf308U,
  0xfafe01ef05f4fee0U, 0xe1f506f9180c0afdU, 0xe2c5ec21f233c83fU, 0xb673daebd038728U,
  0xc3fba36f48213706U, 0x374067fce32409e3U, 0x4af80081291f3ef5U, 0xdbaed3e8e858f710U,
  0xfb813b25130ede28U, 0xb3d833c4c7e027b3U, 0x91f2a37c3d8b8f6U, 0x38ffbbc9db040059U,
  0xf3f9f0251cb0dbe7U, 0xf9d93cedfe0a1109U, 0xe91f7f1c0e2bee75U, 0x1312f6f30ef755d2U,
  0xdf03d4cbf5ff100cU, 0x21f2ef0a41d503ecU, 0xd7fda5dd04280efeU, 0x73faf30419230afeU,
  0x37f05d314ff2a55U, 0x13e5ead625f20cdcU, 0x2581d3fd99f01812U, 0x3082ce1ed1726f2U,
  0xb35eec1402440449U, 0xbc2dfdea13f9e700U, 0x4e3c680c45e96511U, 0xc902f5cac1e7ce66U,
  0x3a27ecbce18132b8U, 0x37f2d211f14dea16U, 0x53e76545c62c6329U, 0xfa25e910f9280cf3U,
  0xe9c2e2155bc2b3d9U, 0xf56addefe5001cf6U, 0xca17d3cb0e1ce5daU, 0x5fa1135dee7ce25U,
  0xb57ac2812be01ccdU, 0xb411237641420cf3U, 0xf74881893ba29902U, 0xc1533f0fed2fe21aU,
  0xdcbaf98df626d0c5U, 0xdbec4af5153de93cU, 0xda1204230734f61cU, 0x8101ff1d02233423U,
  0xfee70317e0fde90eU, 0xfe01da220af90dd1U, 0xf3f51ae410eaeed0U, 0x3d90dbe31eed22bU,
  0xe9c1d6f149112501U, 0x362bf208da980cecU, 0xabb081fe25ece114U, 0xf0bee55ec0be001bU,
  0x609f1d8eef268feU, 0xbffc08b4f023a448U, 0x21dade54fbfebadbU, 0x801210727ecd8c9U,
  0x7f2846de953a0ab7U, 0xb5ff122af3280d41U, 0xe7b6548141d1d2f7U, 0x1a10e60f4501eac9U,
  0xe238d7ec0d290912U, 0xd723fd3edf23dcebU, 0xf823fc19e8fdc276U, 0x81270c45efa8040cU,
  0x1c2fe9e1f12fe5f8U, 0x17eb1943eeeaf918U, 0x48fbcf3a23eb0903U, 0xf5c4ed1cd10a030aU,
  0x2c18d30efcfca512U, 0xbbe1df7f24f5ddfeU, 0xf8e928f6f71305f1U, 0x24e7e846f3e33218U,
  0x4af4ffb5140411c3U, 0xecd20181e1163803U, 0xdf9f70902fbedecU, 0x3a27fbfbfdf00d30U,
  0x90cddfce00009e3U, 0xc941dc4c202c8c02U, 0x34d5ebf21b36fb01U, 0xe806f3d4e31dfef4U,
  0x5018ece613f0f909U, 0x7fa1e6330cc1d407U, 0xec0e02fefc24e808U, 0xd01781e3fef1ce23U,
  0x10271d02fe50dd1eU, 0xf3a8ffcedd03f104U, 0x2501f8eadf180425U, 0xd474e5260c3e02f6U,
  0xcdc4cc990e17c904U, 0xb930ad0697432af6U, 0x1050b89cbe37fe0U, 0xe559dcb0ea48390aU,
  0x11fc03553dc1e7dcU, 0xef41f82cd2525aedU, 0xb46bcee801e80413U, 0xefd7dc4eedd2811cU,
  0xd74340b73238ed18U, 0x8d02b1e0d13387fU, 0xcffcf1f0021e1b34U, 0x11d3041ff7f5f51eU,
  0x27f7f50a110421eaU, 0xdb111e02f810eef3U, 0xbb28ff51e7f5b7f5U, 0xb7057f2f012b20f9U,
  0x6634f701ffc35b13U, 0xfcf0e219134140b8U, 0x32de73d605dc19c0U, 0xe40af2bfd621f3bcU,
  0x7fd9f3a1ecd6dcc1U, 0xfd27defb13f9f819U, 0xe3b1fa1905bbfdd9U, 0xfb000307dd0716fdU,
  0x38df0daa3210ff81U, 0x6bda0dc42e01e813U, 0xc0ef108191fdd10U, 0xf802f4e0f70d0b15U,
  0xe201f21ae2fc0a04U, 0xfddfefeef825ece3U, 0xc50534fa8129c5d8U, 0x2efff60bc40521fcU,
  0xfae0e1e5cd160123U, 0xf4f7d3ee1a1bed0dU, 0xf01006dedeeb450aU, 0xf181e2cebca8af6U,
  0xfbc11da8e539f90fU, 0xf90e12e81c064ffeU, 0x121a28f802812de8U, 0x350307e402fc63efU,
  0xcf1615512a2bd015U, 0x3b001c2813eb2611U, 0xa9f023eff506f905U, 0x810f090419480ae6U,
  0xc417f32dfe13ad96U, 0x901b17d4e62fea5cU, 0x812b17debe0814f3U, 0x32180b35e818cf04U,
  0x470fdb25e2d0d32bU, 0x6f71b042bf51becU, 0xe5ba222330ca0428U, 0xfbeeecf405ff0e0fU,
  0x71423e1d27fe416U, 0x40ff4ea0b0c13f2U, 0xb507fb8146dc4c1cU, 0xdcb52860dfd3b7c4U,
  0x115ed01310ec21ffU, 0x6e3a9e095b2aa1aaU, 0x18125e8eb4176834U, 0xe2e4ee0fe281f50dU,
  0x29e61b03fce402f9U, 0xf0fd610de41b0555U, 0x313e80e02f4f1e3U, 0x3f5cf0a0cedf626U,
  0x97f200b444ce91bU, 0xaddd3d71ada43beU, 0xdcf9344ca70106e7U, 0xfaf8e6e615d9f4f6U,
  0xfb43dbe508f11915U, 0xdb2220f7442af31eU, 0xd81432bbf4fb0dfeU, 0xd6e923348118df12U,
  0xcc1203e573f1eccbU, 0x1e13cf12044e76d3U, 0x2d63bb82dfea373U, 0x5e0ba8fdd1c6c321U,
  0xbebc2bff15f11726U, 0xdf57a2cef0b5e681U, 0xebf83fd65423c011U, 0x3bf1e11d450d1131U,
  0x260863718103b517U, 0xfd253b15f0e6ca02U, 0xd1dcb88406f3d83fU, 0x1ac015cbf624e61fU,
  0xe710c5d9213f1781U, 0x202bd1e92e40ef39U, 0xe90e2d0bf70c0731U, 0xf6b21a96d634f9d6U,
  0xd8f742eb16271906U, 0xd4f2ed0b06b3f3eaU, 0xedbafae3061025f6U, 0xef0f7f1ff631f43cU,
  0x3fdefdf03ec3bf9U, 0xe61bb1d9fde51a19U, 0xebf52bfead2cf6c6U, 0x8114c0e6e81647e6U,
  0xffc22d046a6113d3U, 0x100955122926dfc6U, 0x3011bbc6f9dd1fe5U, 0xe6181a00cbff157dU,
  0x50f8f781d04603ebU, 0x26f2f10f0611deU, 0xf3f4ea0932ff10fcU, 0xe6f5d4fe03fdfc24U,
  0x90af0100502d9fcU, 0xe912f87ff5fb15ecU, 0x161410082500fefaU, 0xf00a0404e50523f7U,
  0x1de6fd07ed0125efU, 0x6a0414ca1d10f4c9U, 0xa432208449d9f4f8U, 0x3d22f412fc7f90e4U,
  0x11d8f14af0fad84bU, 0x27d3a219e9f60e66U, 0xc12adcfc1119cbc9U, 0x7fde0e5247f1600U,
  0x1016fafefaeffa01U, 0x2807dcde0800131fU, 0x4ea61503f5e40efeU, 0xd62c2545ef0ac750U,
  0xc60d352d0d0a1206U, 0xf82636ee17cf7f13U, 0xf31921f32309eedbU, 0x19e033ff02d812c8U,
  0xe1031b06e63602f4U, 0x14409091d011ffbU, 0x292fc7f712a6de7fU, 0x85525aeddf1f8c2U,
  0xfb3393d7e0c0ef57U, 0x4191a0c23edeaeaU, 0xe6017f00491ffbf2U, 0x2a0dfefcf1f61c08U,
  0xfb13e905fefbf6ebU, 0x13d548d218d8fdf7U, 0xc9c404e64be5f70aU, 0xff03f906120bec1bU,
  0xf0edd3119b30ebaU, 0xdec7edee1c0104f5U, 0xeef81d509f90dd0U, 0xda20e481dcf5a36dU,
  0x32180afef1c228d9U, 0x2ffb050af71ae7e1U, 0x1beb13f0ee170e04U, 0xf9e5f0f1fafe2bfeU,
  0x492111150d271481U, 0xe1bdd8e71004fcfbU, 0xb708ee0bbbec09e6U, 0xf733f0b236bda3f7U,
  0xc119edef0fe5ccf6U, 0x50601ecf0c1fef7U, 0xfdcca4ef54121d05U, 0xd1e613e80a320681U,
  0x1e7064423091bc5U, 0x1602292d1b0f10cdU, 0x54108224ee0fc01U, 0xe737f8e3f1f5e007U,
  0xb3fc24302fbefa22U, 0x2b05300f022041c6U, 0xe981fd14fd4cd70eU, 0xbcc0ffef0d40511U,
  0xd3c2505e2fad8eaU, 0x505f49ed53cdd06U, 0xd51de905f7ebdf24U, 0x7e460b128151ecU,
  0x274817f738371921U, 0x7fe4dc3aeffa10c3U, 0x1cffe432dce00eeeU, 0x909c80c3ce0c8d7U,
  0x321218fa0724041cU, 0xed31f904f2196a09U, 0xe63a4e04d50a21ecU, 0xd71dfef157570e27U,
  0xd1e4a0bcafb4416U, 0x7f580cb67946efeaU, 0xe70ff381e4eeed4aU, 0x1115f9eaf4d50fecU,
  0x4000e0df0e7f5e9U, 0xae51706f239f5feU, 0xcbdef318fd131d1eU, 0xe561df2ad7f40b4aU,
  0x1cfe17cd1d7fc1eaU, 0x2614a7f9aa27eef6U, 0xd805e041e7196f11U, 0xd014ffe8f5380c1eU,
  0xf9fd370016f54d7fU, 0x38050ffaf86fe006U, 0xf908e1e53f5944dfU, 0xe422e8eb1b00fef3U,
  0xc4edded00c200a4fU, 0x1b7ffd24ef49e7d9U, 0xfbc5123e183d301fU, 0x16e43a2ac820f918U,
  0x16e8edeb0e0c150fU, 0xf538f0fde10e02d5U, 0xf1c458cd1b1125e8U, 0x64201b05eb023cf9U,
  0x2cd580d7ff9e3e3U, 0x112818c9462db6efU, 0xd4f5312304d3e4f3U, 0x2bbf00007e18U,
  0xfffff7a5ffffd906U, 0xffffffe9000034acU, 0xfffffc23fffffe86U, 0x2c9c00002e44U,
  0xf98000025baU, 0x153f00001970U, 0x8c2700001e1eU, 0x3ecf00004764U,
  0xffffe63500003255U, 0x1ada0000668eU, 0x7b7d00000d31U, 0x2c19ffffa764U,
  0x192400002d41U, 0x5217000035b4U, 0x45ff000018cfU, 0x95100004f8bU,
  0xa7f100003d9bU, 0x391c2000017f0U, 0xd5c600001fcaU, 0x1285700004eaeU,
  0xffffdc1c00002b5aU, 0x421200001a77U, 0x259b00003b0bU, 0xf4a00003845U,
  0x2f7700003612U, 0x43500005dccU, 0x31c7000027a3U, 0x23cc00002146U,
  0x306200003769U, 0xfffffea600000193U, 0x48fa00003b52U, 0xfffffc0800004f75U,
  0x5b13000024d6U, 0x33190000888fU, 0xa5e000019aaU, 0x2a0d00009456U,
  0x3d3b00005736U, 0x26e2fffff925U, 0x830c00002d1eU, 0xffffee070000385aU,
  0x57d00000124cU, 0x6950000846eU, 0x53fb00008ccdU, 0x361f0000303fU,
  0x22f7ffffdf85U, 0x248f000292ecU, 0xfffffb0800000666U, 0x6434000031ccU,
  0xfffff34d0000121cU, 0x113d00002fe3U, 0x48d100000081U, 0x287e00003bb6U,
  0xfffffb0dfffff526U, 0xa87ffffe8b6U, 0x2d2affffd117U, 0x51270000275dU,
  0x2d4c00003b10U, 0x1c9e00005192U, 0x1db460000235cU, 0x385dffffdbe4U,
  0x3e45000047e7U, 0x4f720000ab32U, 0x230b0000a33eU, 0x6b49000038c9U,
  0x56fcfffff269U, 0x37b7ffffe1fdU, 0xfffff09300001f79U, 0xfffffb34ffffdc24U,
  0x1d2cfffff45aU, 0x184b000085a8U, 0x1f61f00002d7dU, 0x3b4300001d93U,
  0x9f7000025d1U, 0x4e02ffffbd83U, 0x542600004a59U, 0xe04100001e9cU,
  0xae4e00002aebU, 0xa8600004da9U, 0x67f500001bd0U, 0x250100000ae4U,
  0x1a700000e05U, 0x554200004477U, 0x2f3000004d3dU, 0x11a000001ee5U,
  0x10440000288fU, 0x2da0000369cU, 0x97800000f24U, 0x47f100008170U,
  0x5c66000029c8U, 0x77bc00005ae8U, 0x31530000180fU, 0x12b0000181aU,
  0xb200ffffe76cU, 0x189afffffd9eU, 0x2ed6fffff337U, 0xfffffb470000398dU,
  0x116a00003a83U, 0x42be00001e56U, 0x18e3dffffe74aU, 0x312800008c32U,
  0xfffff77000002042U, 0xfffffff500006950U, 0x239200002f87U, 0x1329ffffe6faU,
  0x200800004d20U, 0x455600000b88U, 0x48f400007018U, 0xfffff6f600003c71U,
  0xffffed1f00001ef2U, 0x7290000023f6U, 0x327f000034b2U, 0x5f0100008f06U,
  0x7aa3000001e6U, 0x20cbfffff77dU, 0x18a600001eb1U, 0x4d1900002dd1U,
  0x69c00004d16U, 0x83b500003ac5U, 0x40648f80000ac8dU, 0x1b13f011d808f0efU,
  0x6dd10040ff9e5eaU, 0xf3d710e718fbe9U, 0x6a1506f0e7fce0ebU, 0xfa050b0af6efd8edU,
  0xf3def101e9241dfdU, 0x25f805e4c41819d7U, 0xdfffc42809681eU, 0x8f3fb37f1dd1c0eU,
  0xed1f33ef0526f8faU, 0x7d926321332f803U, 0xbff061904caf10cU, 0xfa0ce829f57ff3d1U,
  0x3907f215f40fc609U, 0xf8fc200b14e10c03U, 0x1a14fe12fd0622efU, 0xc1fedac13cf4050eU,
  0x2dd13ff00d8f911U, 0x18ffff26fafad801U, 0x1ceafa08fe0307d9U, 0xff80002412410ecU,
  0xfef5e9030b06e116U, 0xba4ec00d81dfdf5U, 0xb0e6fa1bff190a09U, 0x13eae307def51ef9U,
  0xe3ecd1e2183df50aU, 0x6fb08e702fdf9faU, 0xf61024082c1cf7dbU, 0x11e50bfeed0aff1dU,
  0x508127fe3000506U, 0x81c7ecd200510a1cU, 0x87248bfdfcefe281U, 0x8a0a0769e71310d7U,
  0xd2fc9f0e4e5e697U, 0xfd04b60ed581a145U, 0x19b28b28bef27fe5U, 0x287fcffb5e817f7fU,
  0xe99d2e06d067097fU, 0x10dfef481cd94f4U, 0xce7814adf7f7f7fU, 0x9f381237feca31dU,
  0x9511e881d91be6e8U, 0x62a153d7ffb6ad8U, 0xd87f00d57fec38b4U, 0xd26ce77f1515bc0fU,
  0xe7feee901207f00U, 0x7f1f480ded3fcb92U, 0xe820e556e5149207U, 0xfb0935f12ed20105U,
  0xfd0edde97f031104U, 0xe51d021b037ff4e1U, 0x6e2eff8e41d0ba4U, 0xb97e325ded40ae2U,
  0x538eda04e8e26b26U, 0x7f16b581e9000f01U, 0xebd0e19fc51f7f12U, 0x95075e03ebdeed03U,
  0xfe327bf55e7f83U, 0x1e7f81f9d5d6f511U, 0x190b0bff34f8fafcU, 0xedfed105f9ee7f09U,
  0xfef302def10001f7U, 0xedf101060a0b0315U, 0xe2f3032206eaedfbU, 0xf60dfce4080be301U,
  0x2311f7eefe05ea20U, 0x541025f905e5f70bU, 0xe908f8fef7c8fefeU, 0xf7f80afee722e5e5U,
  0x7fdedfe3dea051eU, 0xf7e903e4e92bf72bU, 0xf9cb0be3de0c001cU, 0xb900fa06061f0ef6U,
  0xaff2bfaf10df508U, 0xdef631ff1b08fee6U, 0xfd05161002080207U, 0xf93512f81ac941f6U,
  0x220401dd1ff714e1U, 0x624effc05012f01U, 0xc16f00cf701fefdU, 0xe8fd0afbfafe3de9U,
  0x1cf7fe171a170409U, 0x80a54acea00d024U, 0xdff7afe6f8fcfb33U, 0x1b0a0bf1e8fc1ff7U,
  0xfaebf5e2d71437U, 0xf6e4fbed08ea1600U, 0xfd1f0c0d1005f610U, 0x2f368eafdfff0fbU,
  0x1916dc10162decfeU, 0xe1fbabed58e77fffU, 0x3e90b16ee7f7f7fU, 0xda96eb13a196e952U,
  0xa1a60f37d10aebfcU, 0xd47f86087f19e9a0U, 0xf60c7ffef731e3f2U, 0x7f0910f1fd7ff793U,
  0xa37f6be7fb05ad7fU, 0xf0fe030ed7dd84bcU, 0xa909e5dfdcefe805U, 0x7fdbfbb0a17ff27fU,
  0x45e6870bf7907f25U, 0x41a09f2017e8e48aU, 0xcb15e7e8db3ef038U, 0xf37fdfefc3f11cebU,
  0xc97f08ee0eea810fU, 0xf2768c815c81e247U, 0xa381ec20eed5eee8U, 0x130e900a15eb02fdU,
  0x7f5b810c9cb0e6f3U, 0x8137e210e1579c6U, 0xe8f6f2e5fa82fe1aU, 0xdf0d1e64813ae1c1U,
  0x127f811409fe6be6U, 0xeb1be51c30f76f05U, 0xeb24f0c7d983d410U, 0xf214fa0a7dffe0f8U,
  0x831df88845d57cf8U, 0xf9fff198ff7fd1e5U, 0xd67f81a87f7fc97fU, 0x877f46bb7f817fedU,
  0x7f81817f7f0cebf8U, 0x7f7f47f67f7fc67fU, 0xead87f7f81b27f7fU, 0x7f96917f7fd981a4U,
  0xdec4d2adb90281c5U, 0xb0508e7fd67f9d73U, 0xa081ea81e07f7f40U, 0x8ad5477f817f81b4U,
  0xa37f7f817f5d817fU, 0x7f7c817fb962aaedU, 0xf89df87b7f7f65a0U, 0x7f819bdc7f7fa304U,
  0x818181a3ea9f7fdfU, 0x7f8ef47f8181e481U, 0x7f81cc7fc87f814fU, 0x81f781b4537f1381U,
  0x887f087f7f7f817fU, 0x8e7f7ff47f7f8181U, 0xebf281fd8127a28bU, 0x7f7fa6817f7f7f65U,
  0x818194818192058dU, 0x7f7f7f7f81a77f7fU, 0x7f7ff6147f8d7f81U, 0x81df819b7f7f1281U,
  0x8d817f7f7f81817fU, 0x81e37fec7f818181U, 0x7f967f81fc7f817fU, 0xeb81817fa307f67fU,
  0x93270c107f030294U, 0x8601caf7ac6436dfU, 0xe48c11ea0d11f895U, 0xe6f4d889ef0c237fU,
  0xe3ae7f8f11c17f08U, 0xdcf4dbec6e1fb314U, 0xe784ff0dca0dfd20U, 0xa4a9151f0dee00acU,
  0x5c33bd98fa00d3fcU, 0xe103ef05fa0ec8f3U, 0xf8efb546f1d10728U, 0xe119eecf077fb4d0U,
  0xea7fd17f9c08e0abU, 0xf32c4681811c1c7fU, 0x1beacf19faec7f3cU, 0xe40cfd8ed6fad4f2U,
  0xd93cc19801fc07e6U, 0xe6eafe0d66cf5363U, 0xf67f1e7ee519dc24U, 0xf1f70d087f2013eaU,
  0x8107890d7f1c7fb9U, 0x7f190ad11d1c0a12U, 0xd6c87d7fe9f37f7fU, 0x1ee0240f15a0a32eU,
  0xbfb0d8ca2110e01U, 0xce12ef13e51009f6U, 0xf27fef25edc5e99bU, 0x74f9fb16ff07d806U,
  0xdadc81170d7f30e9U, 0xd6f407fb906efa8aU, 0xf30761001eec0104U, 0x90406f503d0130eU,
  0x2911f210fff9072dU, 0xebefffe22404f4U, 0xa0ff9f3e0faf304U, 0xfe18e5070bfafd31U,
  0xfd21eaf706d2081fU, 0xfdeff6fad40fe7eaU, 0xfd0b25e11b1017e9U, 0xddecf3ecf0f70af7U,
  0xfdd51d2a051bef00U, 0x101d0103f9f203dbU, 0x2ce6f5e2e3d20dddU, 0xe2f7d00abe0afc0dU,
  0xea00fdee0a0edb09U, 0x60b0e0419fb0805U, 0xd6d745e91400f703U, 0x15ef1b3103fbdcfeU,
  0x70becf9eb0900d0U, 0x4a040c01ffe0ee01U, 0xfdf9cc1a1aedf9eeU, 0xef010806531807ffU,
  0xedf9d0ed0315fc04U, 0xf825ff2c0a0028b5U, 0x27fe1bf60ff9f512U, 0xe8cd1ad11c070cdeU,
  0xaf1ed01d3f7ebf8U, 0x3ffeeeaf424fcf1U, 0x604e922fe18f9fbU, 0xf7a1d7fe050aec1cU,
  0xeee00027051a01ffU, 0x7f01fcfbd644b1edU, 0x92f00a12e30003U, 0xd72ae1e2db817f12U,
  0x2d127f9e494525c0U, 0x7f2c7ffceaeefa01U, 0xb20281adfee1177fU, 0x23fb819afdba15a3U,
  0xe96f7fc9f4e87fU, 0x25d6d6029ea7f914U, 0xafbd89e5b71c74e4U, 0xe5c7ec15e0f7f901U,
  0x1eb88b07a72f8100U, 0xf9b1aa962c96082cU, 0xf69b1527e4187f93U, 0xf3fd0ef903d3fdU,
  0x30f1ee26ca6f0db2U, 0xcfdfdf1d7f069a17U, 0x1eeb21e200fdde10U, 0xcd7f197f0b10fd2aU,
  0xa1a02a0f4ee0527U, 0xe3fde215047fdf19U, 0xe02bdede15ec79f4U, 0x7f00dbdf781bf668U,
  0xc06eeaf401ff4404U, 0xe28fdf1c991be603U, 0xce03f2def583eebaU, 0x220bf4069e057f07U,
  0x75ffd5d2ee0a0efcU, 0xb06e8f304f31c8aU, 0x903faf5e500fa10U, 0x524f20100f003e8U,
  0x806ff0e030ffff8U, 0x332103e4f8ff031bU, 0xfcf90410fd34d8fcU, 0xb16f819e708fb0dU,
  0xeef1092d00fd0417U, 0xff4f8e80405ce0cU, 0xafcf61235eaef07U, 0xed011cf2f5f2f2f5U,
  0xfde102e2f6230911U, 0xb05ebf7ff18fb0aU, 0x50aee07d204e2U, 0xe6fce3ffd405be05U,
  0xe902edff16f10d0eU, 0xf5ff07f00bffe3feU, 0xbf51bd343e600f8U, 0xfee303e90428fb09U,
  0x28010b282202170cU, 0x19034ffd08010225U, 0x100f8f9d4f1fd0fU, 0xf8101219090a15fcU,
  0xfb9eeafadb47121cU, 0xf613f9fe04400903U, 0x8f820fee3f5eefaU, 0xf0ffefd518d2ee06U,
  0xfe2d0af32300cdf6U, 0xbfc040705f1f520U, 0xf21bfbfdeb16011cU, 0x155900fd01f7U,
  0xffffff0bfffffa73U, 0xffffee79ffffe1feU, 0xfffff22f0000000eU, 0x7a000025a9U,
  0xda00000afeU, 0x4023ffffeef8U, 0xe0000178dU, 0xa4000000a5U,
  0xfffffd930000011fU, 0xf00fffff921U, 0xffffff4d0000248cU, 0xfffffc2dfffff368U,
  0xfffff8080000022dU, 0xecffffecc4U, 0x1cbf00004ffcU, 0xdceffffff69U,
  0x42ffffeda8U, 0xffffe4e9ffffffdfU, 0xfffffd58000019bcU, 0xffffffff00008003U,
  0xfffffc67000009d7U, 0xfffff211fffffac1U, 0x72000000fdU, 0xffffff6700001744U,
  0xffffff61ffffff95U, 0x1bffffffe2U, 0xfffff70b00001da8U, 0xffffeb3f00004c07U,
  0x22ffffffb97U, 0xfffff06700000029U, 0xffffe5e00000105aU, 0x432200000201U,
  0xfffff252fffff117U, 0xac3ffffff91U, 0x3a5600000006U, 0x23afffffc78U,
  0xfffffff7000039faU, 0x105100000b41U, 0xfc0000057dU, 0x104dfffffee5U,
  0xfffffeed0000125bU, 0xfffffed700001ff8U, 0x102affffe800U, 0xffffff43ffffffa8U,
  0x56560000014aU, 0xffffd5bdfffffbb1U, 0xfffff349000033b5U, 0xdfffff229U,
  0xcc00003391U, 0x648dfffff764U, 0xfffffe73ffffeebaU, 0xffffffe3ffffff1aU,
  0xfffff433fffff7cbU, 0x4434ffffe6c8U, 0x159d00003d15U, 0xfffffec90000018eU,
  0x47ffffffaeU, 0xfffffde900000152U, 0x3b5e000005beU, 0x3c500001270U,
  0x26b800000062U, 0x3080fffffe14U, 0xffffffdeffffffa8U, 0x37cffffe52eU,
  0xfffff87d00001da8U, 0xfffff88c000000f7U, 0x2f53ffffffa2U, 0xa31ffffe12dU,
  0xfffff53f00003607U, 0xfffffc5d00001449U, 0xfffffdd4fffffdc4U, 0x4a00000155dU,
  0xadfffffff97U, 0xfffffc52ffffea4bU, 0xffffee3fffffff3aU, 0x2e0000001baU,
  0xffffe0c900002608U, 0xfffffff0ffffd141U, 0xffffea79ffffea97U, 0x2fffffe7bU,
  0xa95000002f6U, 0x37fffffffdU, 0x151000001c1U, 0xfffff16bfffffe30U,
  0xffffee07ffffe1a5U, 0x7fffff122U, 0xffffea75ffffff91U, 0xffffffa0ffffe04dU,
  0xffffffddffffffcfU, 0x920000319eU, 0x3d000003bdU, 0x1ba6000040a6U,
  0x2917ffffd3dfU, 0xffffe590fffffea9U, 0x8c7ffffe5e6U, 0xffffffcffffff94aU,
  0xfffff6d6000019edU, 0x26a5000005a1U, 0xfffff58c0000005fU, 0x7ddffffe54dU,
  0x153ffffffa5U, 0x2f2fffff42bU, 0x19600000007U, 0x80e70000186fU,
  0x2f27000045e5U, 0x176700001220U, 0x1cd1000008f9U, 0x24ba0000020eU,
  0xfffffca300001d96U, 0x18fffff3abU, 0x2bdfffffb05U, 0xffffb66dfffffe50U,
  0xffffe4f1ffffff5aU, 0xffffff7afffffed7U, 0x271effffe31aU, 0x5e00000178U,
  0x12000000011U, 0xfffff23ffffffc6bU, 0xf9e00001826U, 0xf30a0438e505fe10U,
  0xec0afaebf2044f02U, 0xf8e62481b923ff04U, 0xf3e80113fdff0024U, 0x1c17de13dd0de7d0U,
  0xe7240ff6e2304304U, 0xf20e0a0e103d1f1aU, 0x1f9ffa302320f30dU, 0x5d50806131e28f7U,
  0xf813edf6fb4aebefU, 0x27fa12f9c6150720U, 0xee09dd02f01ffb06U, 0x1ff0f6041af1041aU,
  0xebebfaf9fbdd1d03U, 0x71e12f5fdee06fcU, 0x21e71a5004081516U, 0x5ff3b4e1be8d8faU,
  0x5181effeaec09e8U, 0x11210d2cfcfb0b40U, 0x272f7008092202f7U, 0x1212080a07f1f21dU,
  0x7000717cedcf618U, 0xbd0f0313090e15e0U, 0x1c1b2e02e2f000f7U, 0xef200ecc13cb3221U,
  0xcf1110e508eaec0dU, 0x170017fc09190ae8U, 0xfd1c44273b081438U, 0xf9071eda02fc3707U,
  0xe345eaf8f3010915U, 0x180c370e10c7f225U, 0x50ff075edffbfcf1U, 0xb008e410be102119U,
  0x15ee08f506e6b821U, 0x3214ebe80f0aefeeU, 0x27b701fc0d17f214U, 0xfcc656d90bd306faU,
  0x1eeaede1341dff00U, 0xef24343b170219U, 0x77371ba2f40dc4f1U, 0x829fdf82806f315U,
  0xe2f301f8e401220dU, 0xe0508f6f5d608c4U, 0xbc2fe16d4b9ea00U, 0xef05a51340002752U,
  0xa031912dc0a353eU, 0xfb972ef3b5fb37fbU, 0xe90b1104f30624ebU, 0x40c51270f0a2334U,
  0x2203edf019dd15a8U, 0xfb2af1010a0806f8U, 0x10eaeff823c61604U, 0x881141b02e10808U,
  0x6e5ebec2c203efeU, 0xb8e7ba0210021d33U, 0x1df91f071fd2150cU, 0x38110f20ce11a3e8U,
  0x2601ff150359fe15U, 0xf801f61d1f2cfbffU, 0xf8c608051c0b1026U, 0xef1d0ecb10012633U,
  0x2c551ffdea10f308U, 0x3dfdcfd03cbbc0aU, 0x30fe24f5ef12d828U, 0x61216e3cd05e61fU,
  0x1c05fd1c0beddaf6U, 0x5eaddf9010ef3f2U, 0xf219f808090a30f7U, 0xbf9f3dc12f21ce3U,
  0xfaedff2af87c190cU, 0xe71bfb0d3bd73009U, 0xfd26f402e3030cf0U, 0x13f92fe2fd3fe7ecU,
  0xae9f0d701faebe8U, 0x2f22dd0718fe1d05U, 0xea0c090dfd05eb19U, 0xb442dbf00d02ebe3U,
  0xdef0fd15f30df902U, 0xf4f10c0728d60812U, 0x160f092b32fad040U, 0xe90709efe821fcf5U,
  0x2024ced2fa27d7baU, 0xe6ad170d12f7fb01U, 0xf002eff616f71306U, 0x1af6eaecd616f5f3U,
  0xe9e7f00b0a09edf5U, 0x14f307ecf827b8d4U, 0xfa1bdbf0040edbf5U, 0x3a1005e47f21380eU,
  0x31239c90a0cf928U, 0xd2353413edd60c17U, 0xf23a6fc3f5dc37e0U, 0x2030fe90a5f4a0fU,
  0x192308f5cdfe033fU, 0xb11909089cbd2afcU, 0xa4e21c312416c9f1U, 0xfa1fc62e15edfbcbU,
  0x808db38f7201227U, 0xfe4235b11fd4ddfcU, 0xc914dfc7140818ebU, 0x440303094354f619U,
  0xd5150ffbe9162929U, 0xce8bb38bcf71f15U, 0x29c318dde932e3c2U, 0xd932e20e3af2c9f2U,
  0x136e024cbf181f9U, 0x1fe4ec53091f34b4U, 0xf3f2df2be50a31e5U, 0x6159fcf9c6f8fcdfU,
  0xf129e7d94504c61bU, 0xf13ce15d2f1d4c7U, 0xda24be5b3baffa59U, 0x32b9e55ced27deffU,
  0xfea18fa480a2118U, 0xcccfc2600b948fbU, 0x2836bcb812d5f5f3U, 0xd4e01ae923e5fcecU,
  0xdcfd45ecb2f5d8f3U, 0x2771ecffcd4ffb23U, 0x112af7d6112bc7c5U, 0xcc15ae07fbea1034U,
  0x12e3ff09fefa0c26U, 0xe61501030318f932U, 0x230bf51cba0a06dcU, 0x2814cc0a1a260805U,
  0xf1e107faedffe7e5U, 0xfede08d3f3100cf1U, 0xfb20fdf9e1cd0824U, 0x4c08fefff3441722U,
  0x3a1afecdfcfbf7ecU, 0x1810eef2a0a0fd3U, 0x25eff310facdfa1fU, 0x21d4ebfbd814e4dcU,
  0xf0ad1d3020ef01aU, 0xccebfc04bce906caU, 0xf0ecd70411f0ea13U, 0xfd09e11bfd23e0deU,
  0xcefb0dffc7e7fef6U, 0xf8e904e1331513a8U, 0x1cfaf0e41036fc09U, 0x1b4c13f6e3cff81bU,
  0x2a20f518f31dfd1eU, 0xe01dc2a020ee8d7U, 0x192d371dcb1cfdd7U, 0x41f4e51f2322f922U,
  0x1afef74550ed1dedU, 0x6f7010540e2f5eeU, 0x27f9b6e5d6de57e4U, 0x606eef204040f0fU,
  0x30fb2bf6211f2806U, 0x32116fee9067fffU, 0x1659dde80becdad6U, 0xd2b41c2edd05e58bU,
  0x92080a131f141cfaU, 0x1806f1c5d3e9eb24U, 0xff30f3faa642d8f3U, 0x51cce9f333bae11eU,
  0x14af5a5bfed71a0aU, 0x5cdad0ebeee842e5U, 0x3ef4d901f23bc8f8U, 0x28e1f82bdb212fe8U,
  0xf4f1310feaf14bd1U, 0xc9303133faddd61aU, 0x2cdc12d10e9b701U, 0x13919ae1633642eU,
  0xd4f48a2211bacce0U, 0x317f9bd1122110eU, 0xf22603dae444dcd8U, 0xd2e6a5122431f8efU,
  0xcfed13193ebb8db8U, 0x54752f73ad7f317U, 0x352204e01f0bc9f4U, 0xe20ff16e2160b2cU,
  0x1f51031f62814bbU, 0x1e3e21a5e80d66d4U, 0x16d33e4628ddbff0U, 0x32230cd3112b5100U,
  0xedd10623e123f926U, 0x1cf1bdd30c030ce5U, 0x31726f405244448U, 0x261bf202f9f7ecfaU,
  0xebeed80100f4d7e3U, 0xa50ffaeb011d1afeU, 0x9e3f0fd0601e781U, 0xecf1fdfef4eb36fbU,
  0x2af71e1313fc05ffU, 0xf0e6f9fb19072001U, 0xec10e8ecf407e9efU, 0xfc5922fde6f3f005U,
  0x1f74b1232ec0cfcU, 0xe3150e30fc02ffffU, 0xffdac704f3f3eaf1U, 0x15c31cda061601fdU,
  0x8f405f12204ab12U, 0xf5d90b4aff0ef31fU, 0xfb02fe080f0106d5U, 0x18e60827f6d61e07U,
  0xa02190cfd01f9f7U, 0xdb1107fb09e1f321U, 0xfb060309f4dfd4cbU, 0xee06d30a01ecfe08U,
  0x6e3f90010f5e0faU, 0xde0aed2de8f500ddU, 0xfd19db060df2100eU, 0xfad82af5fcd021e2U,
  0xfc6debf61323dcf9U, 0xa0613f9c8f7fdf9U, 0xec10ed09c8fe02f5U, 0xe50af4f2ea2ed8e6U,
  0x2305001b01045a1dU, 0x30b0910b4f51fd5U, 0xe108c752093436caU, 0x13151113ccd9fbf3U,
  0xe1cc06bcc408bbbfU, 0xccd805ebcc0605e5U, 0xadf453071126feecU, 0xd3e50517ed1063b5U,
  0xf3dee707a7bf17fcU, 0x3ce0fecd50f0bf5U, 0xa957e4ff291cfc22U, 0xdb0b150eeccc01b0U,
  0xe51d9e01deede109U, 0xf12190905ffe222U, 0x281017ed3b192008U, 0xe2f20ff50f0cfe28U,
  0x2fff04fef302ed13U, 0x17ddfae5fd08fa01U, 0xfbdaf3ebf4d5f526U, 0x3035e6022718f18bU,
  0xf4d6e9031ed1fddbU, 0xc04fb3dff00db0fU, 0xd6b709ddba1e81e7U, 0xedeaf1fc1fbedbU,
  0xf7f4cec60b10e409U, 0x7fbb6ead8f3e419U, 0x33d6dd072808b763U, 0x6dffbd4fe2d03b6U,
  0xf45dd44b07e237f7U, 0xf90aa8d40d3b09f8U, 0x172ef5ebde290bd4U, 0xe72123e83be6d30aU,
  0xc409f934fce803f7U, 0x46410ffc2bc2ed0dU, 0xe2f1e3811fe4890aU, 0x413230ad2eaf4f1U,
  0x351cde06002dfddfU, 0x3e306f2d1f91911U, 0x3ad03f0f5ef5ad5U, 0x2ce3f81418f4e53dU,
  0x3df060159c3f801U, 0x2145000315d3e2d0U, 0xbed313d330d22f2U, 0xebd81df7e4201be7U,
  0x1b28a1240032084cU, 0x33f0e917fc0af4c5U, 0x905f0d6db2003eaU, 0x4062306052f4b04U,
  0xafbe7ad020e1fcaU, 0xcff01ccabcf31017U, 0xfef3f9f2fdf9d945U, 0x3e004f6be2a3d12U,
  0x4214f54c1f1ce7f2U, 0xee92252f32fe1514U, 0x1adf083b13d30fedU, 0xd4e5f13cbedef005U,
  0x5500de0ec37ed5eU, 0xfcf6cd263f0c2c2aU, 0xedeef511070dea12U, 0x5817e003f001f4dcU,
  0xee300726f361ade3U, 0xe7d8da23c4fefc1dU, 0x141d07d507de08f5U, 0xc009e1e00f23fc13U,
  0xe21df918e9f80044U, 0xf8f6f8cffa1f2007U, 0x14de202c06210ee5U, 0x38e213053bfb1310U,
  0xe503f8eff5e30903U, 0xff11f2da3301e423U, 0x51505d717d9eb00U, 0xe53e10bf201af4f2U,
  0x6cbf9f3cad0e420U, 0x39d8dd43e2fffdU, 0xef3cf11d3fafd9bU, 0x7e6d1ba1421f00fU,
  0x2e3e33213f15b326U, 0x3337de0440fe0cd4U, 0x16f2f3dece0d09f9U, 0x1bed81d7fff3eb24U,
  0xfe03fddad1fe062bU, 0xd81b0e28df2216f2U, 0x1316f31017de0cebU, 0xd603c042b319fb22U,
  0x35d9dce630dffcf5U, 0xc00af20d25d217e4U, 0x5ef418d84a051c0fU, 0xebf41405092ae0d5U,
  0xaf8f7aa00d0fdfeU, 0xfae8f12dfa21e7d8U, 0x202e611f11efcf5U, 0x2e7fc01e121fbe5U,
  0xea01ea030030e7f9U, 0xb0ad50505fb08e5U, 0xf3fbffe6fe0cf4f9U, 0xf902f10d20fde9U,
  0x1143ee8e820e6feU, 0x601eae9fd42f2e8U, 0xda23f1fcfaf611e2U, 0xf6070bf60f0601e6U,
  0xefffe0cdfcf24909U, 0xf8f91df8f61c0bedU, 0x14eafefdfb0d0812U, 0xdef21909040cf1b7U,
  0xdefff80fe109fb2cU, 0x7fb0b15f50af9f2U, 0x1c0116f4e7f4032dU, 0xfdeceafd05f50004U,
  0xe3ebe3ee000f1c29U, 0xf30d1cfff0f2e700U, 0xff19f8ffebfaf1feU, 0xef0d05edf2811eU,
  0xfb0306f7f70bf8f6U, 0xffe003f00c0f17ebU, 0x70d07fef3f727U, 0x31fe17f5f2e80ff6U,
  0xf02bdc0ff312ec20U, 0xff80515f62106U, 0xfdf7f915e2020404U, 0x10fa3524090aeeefU,
  0xbeedcffeffc0808U, 0xcaddd21501f302fdU, 0xf8ebf4fd08d83104U, 0xe2f80a0809fcdbf0U,
  0xde04e8f3dd33e6e4U, 0xcef2db15f5f6e616U, 0xfff7fceef702fee8U, 0x3edf2fcfe0601e0U,
  0x20d0ae500c8f3d9U, 0xf0ff10fce4fdfaf8U, 0x2e7d8e6f7ece42cU, 0x206ee00040b01efU,
  0xe8fbc7c6ea02fe1aU, 0xed0ff00e0a09fbf1U, 0xf8e711fd0a0ef0ccU, 0x1e8fbe317d67ff9U,
  0xf502f8fe08efe7bcU, 0xaf900fdf105f3faU, 0xc1050e0a14b80505U, 0xf1ea09f5c2facc12U,
  0xdfe0e3e7cb10c701U, 0xecd602fbf7e2f000U, 0xf6ecf9ef0c0811f4U, 0x1809f40efaecf5ffU,
  0xf3c70402f2ca140aU, 0x100eb0ad9f9eb05U, 0xf9f9fa00f90bf811U, 0x7f6dffdbb03cd02U,
  0xd4cd07060cb71bc8U, 0xef0093105f2eeebU, 0xe71ad2faf1891c10U, 0xf1502e51812312dU,
  0xbffce7250f0af732U, 0x3af4e9e00ef4e611U, 0xf707580ff10240f2U, 0xf05ffff0ded3ce7U,
  0xf95e0617e9fff2f0U, 0xfe37b6220cabede1U, 0xd74905290ada0e04U, 0xcef60ff81d002b08U,
  0xbc5eb0e14d2d819U, 0xe80618e9d7f003e9U, 0xf9e10efcfc0a10e1U, 0xff082f0eff1802f7U,
  0xd90a000622ea11feU, 0x301ae2120e2725d9U, 0xfef02019d3ca0203U, 0xdb0501140b171a29U,
  0x1605cdf91402120aU, 0x15fdf80309f7ff26U, 0x11e1d0080d310611U, 0x29210a19cbdcfd0aU,
  0x2509e3f5defbf724U, 0x12b4c20f1516e0fdU, 0x42c0ef2e02b0ae8U, 0x8c1b9bb4f130515U,
  0x8105090811ee2515U, 0xfce432fce91743c5U, 0x1511f2291702e923U, 0xeaee00f7ffdfe1e2U,
  0x7060021190a0205U, 0x48fab8181803f3f8U, 0xbdf1fa0a01eff3caU, 0xeffb12060b10e5f5U,
  0x9f10debd5190d81U, 0x18f5d411dc06dd12U, 0x6c0fcfcfcf60602U, 0xc0020df60d0c02U,
  0x1e240612f60ef811U, 0xf60e0ff50afbc203U, 0x6061413cd12e1f3U, 0x14f709f50f15091cU,
  0xedf2fcffe32b07f9U, 0xe8d5171de305f408U, 0x310d10b303e5fd0cU, 0x4d31a08ffe7e812U,
  0xf0fd1002f3fa0803U, 0x1216faf805e1c5fdU, 0x12ffc91401f4f51fU, 0x1a0d09f808ec0ed1U,
  0x70e021316d817f2U, 0xf10305150111060bU, 0xff6fc0011fe0906U, 0xebfa14f9fbf80a02U,
  0xf1fbfdc9040bf50bU, 0x25f1fafcfaedc409U, 0xd6fb01e208fff8f5U, 0xfc1e0de42513df08U,
  0x60aa316fbf70712U, 0xc42f1d22f6da0912U, 0x11cbec2a3ac81252U, 0xdf68f3d9d4b1bf2aU,
  0xdfe45cdfe719c412U, 0x292419f80f55121cU, 0x2e7b722e8bbcd24U, 0x46dceb1ddaeb21eaU,
  0xf6e5d636ebd9541cU, 0x6f0c21c083ae010U, 0xdfeda0330fcb1ff1U, 0x11c4a2d4c637d8c7U,
  0x1d17ed62e8fcd5ffU, 0x3aed10924e59e2bU, 0xfc2e5646e406c224U, 0xdbe719c61df20a26U,
  0x10cd0fe1c3d8ee0cU, 0xfe200594190591bdU, 0xec050cd7eed7340dU, 0xefafc8eb34faeccaU,
  0xbb1107ccfef317fcU, 0xcf07c7ea11ffc6f7U, 0x14dc147b3023100fU, 0x310accd6f2dbeecaU,
  0x67eaeef678a6d70bU, 0x46fcf4fccde7f4e2U, 0xd2b816cbfb07e909U, 0xf4d7e94200f057f7U,
  0x180a2ee77f290e2eU, 0x19ebadb7e2dd171eU, 0xd73038adabe5290bU, 0x464df3040d0e2738U,
  0xd013328f525010fU, 0x4faf102eef4250fU, 0x6da0fb7f2f904fcU, 0xf3eae314f8df8f4eU,
  0x12072d05eb6016d6U, 0x71619f51349ed3bU, 0x2b0b23f0d20a05cbU, 0xeb14f417ecce1b2bU,
  0xeae5f2e808c84224U, 0x900f2e0b35fdfe40U, 0x19d6c601c0f209f5U, 0xfcf821251e0612c5U,
  0x7f518b8aa401623U, 0xf966dd0301060b1bU, 0xef10bc26e5f9f80cU, 0xe5256123e6c41505U,
  0x250c071df1ee0606U, 0x3beafab12eed7fe8U, 0x121d0ffcdb0014ebU, 0x19f80d5ffafe18e6U,
  0xcf132795a1c11f05U, 0xdec12a014fe02cdU, 0xf8d6ed1cece319d9U, 0x8decab1727072321U,
  0x19344251eb3dffdfU, 0xf8fff120061b9aefU, 0x1fbf121d3d182800U, 0xfe01f311dd250930U,
  0xffc929e43c053b09U, 0x4ffdef13b901fe4cU, 0xed2df8f8d43f1300U, 0xbc201014fb0af009U,
  0x3331816df15dd1eU, 0x3da7ff4ea0000f5U, 0x7fad2d3efcef9f1U, 0x20fce0e4f3000609U,
  0x6fe1a0f13fa06f2U, 0xf015fcf5dff5f503U, 0x80903a605e2f20aU, 0xe9211ef3fcf2b903U,
  0x13f0e813093cd70cU, 0xf3c906000afcfe07U, 0xf603e814fd000df1U, 0xbfaf20305c7f514U,
  0xe8baf0d1e3210611U, 0x80b11fefa381615U, 0x130a0603f60af5faU, 0xc1aeafa01080e15U,
  0xbe530de6d9f3e70cU, 0x17e4c1e9fae0090fU, 0xf114ec16f9f50affU, 0x5319e8faf3f6c4U,
  0xf0f309e20705ee25U, 0xfafcecf608f11509U, 0x208fcf7f80d0f03U, 0x15f5d8ce3b15fef1U,
  0xe802f9f3e1fde7faU, 0xf9d63e06df19bef2U, 0x21d1e915e80508f4U, 0xfde30a032413f208U,
  0xf9fefe03feccf0f7U, 0xff2200f90e11f602U, 0xf502fafff30808fbU, 0x60a00f00c0326fcU,
  0xea1e1ff1b80813f7U, 0xff2e60c06060af8U, 0xf8f265f5fcf3f206U, 0xa1cec0481fe28fcU,
  0xf410fb08090d09ebU, 0xfed6f10305020b19U, 0x180947f81106d6f2U, 0xffec0aeef4010dU,
  0xfdf8020af40501f6U, 0xb070d0605f707ffU, 0x812ff0aec0cfcU, 0xbf0feedf00c06f8U,
  0x4fa01ff02a90f00U, 0xf407fa070cfa0300U, 0xf912fc00040d02f9U, 0x47fa0500080ec50fU,
  0x140804e0f7fef8fcU, 0xeef9f76df904ed09U, 0x206f5fb0609fd0bU, 0xebf6f2f5dff9fc06U,
  0x110cfdff06ff08feU, 0xf408080102f9fe05U, 0xfe120af3fb040809U, 0x9f60203061300fdU,
  0xfbdefe043e0efff6U, 0x318f9ef090cb5e7U, 0x1012ebf91316cde1U, 0xc0518f226abfcfeU,
  0xeffd1c0a2eddf0U, 0x1f23dec5c4d9f4fdU, 0x1c32e4f422c4b7d0U, 0xf917eaf7090015f6U,
  0xc51df12e152c2e21U, 0x1df4fc1dfacc523dU, 0xd2dd325cde2ebf3U, 0x30df535051b2cf1U,
  0xdce304183411e0c9U, 0xbde41ee2f22e6feU, 0x232c4b06bc1de8ddU, 0x28df0ed3f647012dU,
  0xe70023f41facfe0bU, 0xe9f52bf70829fa02U, 0xf2051a1ff602bec1U, 0xe47f7090dc71908U,
  0x11fcc0c1101fb12U, 0xea23160131060cddU, 0x3621fa0cce18f3d6U, 0xcf66eddf7f3ef7dcU,
  0xfcf9c52b01c405e4U, 0xfd25ff2f064b1104U, 0xf8ea221607ba01eaU, 0xb80719f1fafb20f1U,
  0xbfe14dd42faf210U, 0x1ae62a39efff20f1U, 0xcbcca5e2d23c0f27U, 0x6fbefdbe72205d9U,
  0xe3f7e9f9303af4e8U, 0xbb41e6dd1fe934f6U, 0xc7acd6f0683ef3f0U, 0x251efebdd2110ac6U,
  0xfc06e9d0d8dfecd9U, 0x41af9d916080afeU, 0x15e104bb0fbafef9U, 0x67f9be1040907d0U,
  0xe31f1323e5efd01dU, 0xcedefb1312061e04U, 0xcaf8e83df9af4c18U, 0xd60618e1cff5c2f0U,
  0x1c02f3fc1b131818U, 0xfde911ca0e2de609U, 0xec1631151df8a334U, 0x32212fd9ec4ceb2cU,
  0x100c266906f92bffU, 0xe4e5b9e103f8f7eeU, 0xf8e5d6effae51498U, 0x1e15fe290e0c09c9U,
  0xfdd09f11826f813U, 0xf50508e1e90be3f4U, 0xa40d9c517e9142eU, 0x31ef0699f60630ffU,
  0xe302a255fe1f0b2bU, 0xca42feef0b29a90bU, 0xd408d82316dbfeU, 0xfde70200f1f708ffU,
